<pad>	0
<s>	0
</s>	0
<unk>	0
▁.	-0
세요	-1
▁사	-2
▁좋	-3
▁있	-4
▁이	-5
▁거	-6
▁?	-7
하는	-8
보세요	-9
▁그	-10
▁나	-11
▁아	-12
예요	-13
▁마	-14
▁사람	-15
▁좋아	-16
어요	-17
▁같	-18
▁거예요	-19
▁하	-20
▁생	-21
▁다	-22
▁어	-23
▁가	-24
▁안	-25
▁해	-26
▁수	-27
▁사랑	-28
네요	-29
▁연	-30
▁없	-31
니다	-32
▁생각	-33
▁자	-34
▁잘	-35
▁힘	-36
친구	-37
▁싶	-38
▁여	-39
봐요	-40
▁너	-41
▁많	-42
▁말	-43
▁만	-44
▁남	-45
▁것	-46
▁시	-47
는데	-48
▁내	-49
▁마음	-50
▁않	-51
▁너무	-52
아요	-53
▁기	-54
▁보	-55
▁오	-56
▁지	-57
▁바	-58
▁좋아하는	-59
▁더	-60
해보세요	-61
▁이별	-62
▁정	-63
▁연락	-64
▁헤	-65
하고	-66
▁일	-67
▁헤어	-68
▁짝	-69
▁있을	-70
▁고	-71
▁썸	-72
▁여자	-73
▁남자	-74
으면	-75
▁되	-76
▁힘들	-77
▁좋은	-78
▁모	-79
▁한	-80
나봐요	-81
▁알	-82
하지	-83
▁많이	-84
▁시간	-85
▁게	-86
▁사람이	-87
▁때	-88
▁상	-89
에요	-90
▁저	-91
으로	-92
▁무	-93
▁못	-94
▁친구	-95
▁건	-96
한테	-97
에서	-98
▁전	-99
▁주	-100
▁먹	-101
▁좀	-102
▁중	-103
▁!	-104
▁결	-105
해요	-106
▁같아요	-107
까요	-108
겠어요	-109
▁부	-110
▁있어요	-111
▁싶어	-112
▁인	-113
▁대	-114
▁조	-115
▁살	-116
▁당	-117
▁받	-118
▁뭐	-119
하면	-120
▁선	-121
▁제	-122
▁될	-123
▁후	-124
▁오늘	-125
▁같아	-126
▁만나	-127
▁할	-128
하세요	-129
이에요	-130
하게	-131
▁괜	-132
▁걸	-133
▁끝	-134
겠네요	-135
주세요	-136
▁자신	-137
▁미	-138
▁소	-139
▁진	-140
에게	-141
▁이제	-142
▁드	-143
겠지	-144
▁들	-145
▁좋을	-146
습니다	-147
▁아니	-148
▁괜찮	-149
▁마세요	-150
▁필	-151
라고	-152
▁잊	-153
▁감	-154
▁있는	-155
▁마음이	-156
▁하는	-157
▁연애	-158
▁비	-159
게요	-160
▁내가	-161
▁필요	-162
친구가	-163
는게	-164
▁해보세요	-165
▁혼	-166
▁스	-167
▁왜	-168
▁모르	-169
▁공	-170
다면	-171
▁어떻	-172
▁예	-173
▁차	-174
▁집	-175
▁다른	-176
가봐요	-177
▁타	-178
▁행	-179
▁어떻게	-180
▁물	-181
▁짝남	-182
▁시간이	-183
▁헤어진	-184
▁날	-185
▁돼	-186
다고	-187
▁서	-188
▁신	-189
▁없어	-190
▁도	-191
▁애	-192
▁당신	-193
겠어	-194
해도	-195
▁방	-196
▁싶다	-197
겠죠	-198
▁관	-199
▁우	-200
▁다시	-201
사랑	-202
▁혼자	-203
▁했	-204
▁맞	-205
▁있어	-206
▁눈	-207
인데	-208
▁하고	-209
▁또	-210
▁결혼	-211
▁정말	-212
들이	-213
▁지금	-214
▁정리	-215
▁노	-216
▁잠	-217
▁수도	-218
▁재	-219
▁기다	-220
▁찾	-221
▁싫	-222
▁계	-223
▁중요	-224
▁참	-225
▁새	-226
▁그런	-227
▁준	-228
야지	-229
이네요	-230
할까	-231
▁행복	-232
▁조금	-233
▁따	-234
▁편	-235
▁확	-236
▁같이	-237
어보세요	-238
▁데	-239
▁위	-240
렇게	-241
▁것도	-242
▁놀	-243
▁언	-244
은데	-245
▁고민	-246
▁얼	-247
라요	-248
▁아직	-249
▁쉬	-250
▁추	-251
▁두	-252
▁피	-253
▁짝사랑	-254
▁반	-255
▁먼	-256
▁의	-257
이라	-258
▁자꾸	-259
▁달	-260
▁성	-261
지만	-262
지도	-263
▁준비	-264
보다	-265
▁선물	-266
▁찾아	-267
▁배	-268
▁보고	-269
▁아무	-270
▁힘든	-271
▁누	-272
▁화	-273
합니다	-274
▁느	-275
▁저도	-276
▁변	-277
볼까	-278
▁고백	-279
▁없어요	-280
▁술	-281
까지	-282
야기	-283
이죠	-284
▁짝녀	-285
거예요	-286
▁맛	-287
▁바랄	-288
니까요	-289
▁카	-290
▁그럴	-291
겠다	-292
▁진짜	-293
▁후회	-294
▁꿈	-295
▁몰	-296
▁운	-297
을까	-298
▁먼저	-299
▁서로	-300
▁바랄게요	-301
해서	-302
▁없는	-303
▁충	-304
▁제가	-305
▁돼요	-306
▁방법	-307
▁사귀	-308
봅니다	-309
▁이야기	-310
▁심	-311
▁적	-312
▁문	-313
해야	-314
▁헤어지	-315
▁직	-316
▁시작	-317
▁동	-318
▁헤어진지	-319
▁불	-320
▁들어	-321
▁귀	-322
▁돌	-323
▁해야	-324
▁있을까	-325
▁올	-326
에는	-327
▁그녀	-328
▁하나	-329
▁답	-330
이야	-331
인가	-332
▁계속	-333
▁일이	-334
▁나를	-335
▁받아	-336
▁아닌	-337
▁좋아요	-338
▁버	-339
▁줄	-340
▁공부	-341
해주세요	-342
▁1	-343
▁매	-344
▁감정	-345
▁사랑이	-346
▁마음을	-347
이트	-348
▁가능	-349
▁될까	-350
▁보세요	-351
▁왔	-352
▁기분	-353
▁여자친구가	-354
▁먹고	-355
려고	-356
▁힘드	-357
▁남자친구가	-358
▁돈	-359
기가	-360
면서	-361
보는	-362
▁만들	-363
랍니다	-364
▁여자친구	-365
▁현	-366
▁실	-367
▁회	-368
대로	-369
했어	-370
▁드세요	-371
▁않아요	-372
▁하세요	-373
▁떨	-374
▁신경	-375
▁이상	-376
다는	-377
▁좋죠	-378
▁하루	-379
▁곳	-380
▁세	-381
▁쓰	-382
리는	-383
지는	-384
▁간	-385
니까	-386
▁많은	-387
▁하지	-388
▁걱	-389
▁머	-390
자고	-391
하기	-392
▁걱정	-393
▁떠	-394
▁믿	-395
▁알아	-396
▁속	-397
▁취	-398
▁함	-399
▁싫어	-400
입니다	-401
▁바랍니다	-402
▁원	-403
나요	-404
▁상대	-405
▁분	-406
▁표	-407
하는게	-408
▁영	-409
▁그래	-410
▁사랑하는	-411
▁관심	-412
▁기억	-413
▁힘들어	-414
▁쉽	-415
▁해요	-416
▁데이트	-417
▁,	-418
▁남자친구	-419
적인	-420
▁상처	-421
▁생각해요	-422
▁말해보세요	-423
▁맘	-424
▁장	-425
▁커	-426
이랑	-427
▁언제	-428
▁축	-429
로운	-430
스러	-431
▁뭘	-432
▁입	-433
▁맛있	-434
▁어떨	-435
▁여행	-436
▁충분	-437
▁좋겠어요	-438
다가	-439
하죠	-440
▁무슨	-441
▁어떤	-442
▁있었	-443
▁앞	-444
▁엄	-445
▁용	-446
▁학	-447
▁있으면	-448
▁친구가	-449
▁외	-450
▁최	-451
이었	-452
텐데	-453
▁그냥	-454
▁대화	-455
▁카톡	-456
▁할까	-457
▁함께	-458
▁사람은	-459
▁2	-460
▁구	-461
인지	-462
▁않는	-463
▁이렇게	-464
▁발	-465
부터	-466
▁나만	-467
▁물어	-468
▁안돼	-469
▁헤어졌	-470
▁3	-471
▁놓	-472
▁슬	-473
▁싸	-474
▁요	-475
▁내일	-476
▁오래	-477
▁약	-478
하네	-479
▁누구	-480
▁않을	-481
▁표현	-482
▁몰라요	-483
▁힘드네	-484
▁머리	-485
▁이해	-486
▁궁	-487
▁열	-488
▁점	-489
라도	-490
▁여친	-491
▁전화	-492
겠지만	-493
▁자신을	-494
▁과	-495
가는	-496
▁사랑은	-497
▁길	-498
▁설	-499
리고	-500
▁결정	-501
▁궁금	-502
▁많아	-503
▁운동	-504
▁이유	-505
▁하면	-506
▁됐	-507
▁어디	-508
▁사람을	-509
▁새로운	-510
▁듯	-511
▁별	-512
▁호	-513
기도	-514
트레	-515
▁선택	-516
▁아프	-517
▁한달	-518
▁어떨까요	-519
▁늦	-520
▁단	-521
▁즐	-522
▁처	-523
▁돌아	-524
▁부담	-525
▁썸남	-526
▁스트레	-527
▁있는데	-528
▁생각해보세요	-529
▁복	-530
했던	-531
▁미련	-532
▁안되	-533
▁주세요	-534
▁깨	-535
▁치	-536
어도	-537
▁생겼	-538
▁해도	-539
▁잡	-540
▁타는	-541
▁회사	-542
▁나한테	-543
▁죽	-544
▁노력	-545
▁말고	-546
▁유	-547
▁챙	-548
▁첫	-549
개월	-550
었어	-551
해주	-552
▁보내	-553
▁직접	-554
▁아니에요	-555
거나	-556
나봐	-557
▁가고	-558
▁그만	-559
▁다가	-560
▁따라	-561
▁만큼	-562
▁생각나	-563
▁순	-564
▁질	-565
▁때문	-566
▁않아	-567
▁인연	-568
▁지나	-569
았는데	-570
▁생각이	-571
▁연락이	-572
▁좋겠네요	-573
▁갈	-574
▁막	-575
▁번	-576
▁벌	-577
▁와	-578
▁휴	-579
처럼	-580
▁그러	-581
▁싶은	-582
▁어떡	-583
▁생각을	-584
움이	-585
이나	-586
▁만날	-587
▁않았	-588
▁이젠	-589
▁재미	-590
▁갑	-591
▁경	-592
▁멋	-593
▁항	-594
군요	-595
▁그게	-596
▁소개	-597
▁어려	-598
▁항상	-599
으세요	-600
▁같은데	-601
▁괜찮아	-602
▁신경쓰	-603
▁이별을	-604
나봅니다	-605
▁스트레스	-606
가요	-607
해지	-608
▁남친	-609
▁쉽지	-610
▁인생	-611
▁잘못	-612
▁저는	-613
▁그렇게	-614
▁마음에	-615
▁짝남이	-616
▁완	-617
▁허	-618
▁문제	-619
▁아파	-620
▁조심	-621
적으로	-622
기를	-623
▁같은	-624
▁노래	-625
▁처음	-626
했는데	-627
▁바라요	-628
▁좋겠다	-629
인가봐요	-630
▁모르겠어	-631
▁몸	-632
▁봐	-633
▁붙	-634
거라	-635
보고	-636
어나	-637
▁느낌	-638
▁상황	-639
▁어때	-640
하네요	-641
하는데	-642
▁난	-643
하다	-644
▁때가	-645
▁우리	-646
리세요	-647
려보세요	-648
▁볼	-649
는지	-650
졌어	-651
▁나이	-652
▁달라	-653
▁만났	-654
▁변화	-655
▁축하	-656
▁중요한	-657
▁찾아보세요	-658
▁개	-659
▁꼭	-660
▁넘	-661
▁덜	-662
▁목	-663
▁손	-664
▁웃	-665
▁천	-666
▁크	-667
스럽	-668
습관	-669
▁확실	-670
▁사랑을	-671
▁결국	-672
▁답답	-673
▁위로	-674
▁챙겨	-675
▁추억	-676
▁화장	-677
▁이별은	-678
▁가보세요	-679
▁~	-680
▁빠	-681
▁큰	-682
▁가는	-683
▁기대	-684
▁나는	-685
▁다음	-686
▁말을	-687
▁현실	-688
▁생각해	-689
▁괜찮아요	-690
▁포	-691
▁말씀	-692
▁사이	-693
▁세상	-694
▁영화	-695
▁요즘	-696
▁잊어	-697
▁힘내	-698
▁좋겠어	-699
▁충분히	-700
▁절	-701
▁친	-702
▁그렇	-703
▁대화를	-704
▁도움이	-705
▁사랑한	-706
▁태	-707
▁환	-708
▁흘	-709
감이	-710
는거	-711
만에	-712
심히	-713
지막	-714
지요	-715
▁의미	-716
▁있죠	-717
▁아직도	-718
▁여자애	-719
▁열심히	-720
▁물어보세요	-721
▁뭔	-722
▁풀	-723
걸까	-724
동안	-725
싶어	-726
았어	-727
이네	-728
▁가져	-729
▁가지	-730
▁않은	-731
▁언젠	-732
▁추천	-733
▁확인	-734
▁마음의	-735
▁마지막	-736
▁연락을	-737
▁좋을까	-738
▁밥	-739
▁종	-740
▁청	-741
것도	-742
보면	-743
▁말해	-744
▁먹어	-745
▁아침	-746
▁얼른	-747
▁정신	-748
▁집에	-749
이라도	-750
▁말아요	-751
▁싶은데	-752
▁식	-753
▁울	-754
▁짜	-755
▁가슴	-756
▁건강	-757
▁관계	-758
▁나쁜	-759
▁만남	-760
▁부모	-761
▁습관	-762
▁어제	-763
▁때문에	-764
▁사랑의	-765
▁상대방	-766
▁시간을	-767
▁오늘도	-768
▁연락해보세요	-769
▁뿐	-770
▁키	-771
▁평	-772
라면	-773
워요	-774
일까	-775
▁되었	-776
▁매일	-777
▁짝녀가	-778
▁헤어짐	-779
으니까요	-780
한가봐요	-781
▁금	-782
▁된	-783
▁몇	-784
▁솔	-785
▁프	-786
▁핸	-787
사람	-788
▁가장	-789
▁귀찮	-790
▁그리	-791
▁다르	-792
▁살고	-793
▁어느	-794
▁완전	-795
▁이런	-796
▁재회	-797
▁남자애	-798
▁당신의	-799
▁부모님	-800
▁조금만	-801
했나봐요	-802
▁있나봐요	-803
▁긴	-804
▁빨	-805
▁온	-806
▁졸	-807
▁티	-808
자기	-809
▁나가	-810
▁떨어	-811
▁바람	-812
▁아닐	-813
▁제일	-814
▁커피	-815
▁핸드	-816
릴게요	-817
▁조금씩	-818
▁해볼까	-819
▁헤어지고	-820
▁딱	-821
▁잔	-822
▁착	-823
감을	-824
신이	-825
▁대한	-826
▁못하	-827
▁알려	-828
▁얼마	-829
▁진심	-830
하면서	-831
▁남자가	-832
▁사람들	-833
▁오세요	-834
▁좋아하	-835
▁로	-836
▁작	-837
▁존	-838
▁통	-839
더니	-840
리가	-841
한지	-842
▁같애	-843
▁거라	-844
▁많았	-845
▁모든	-846
▁성공	-847
▁순간	-848
▁자연	-849
▁잘할	-850
▁그래도	-851
▁기다리	-852
▁핸드폰	-853
▁글	-854
▁꾸	-855
▁초	-856
▁파	-857
스로	-858
▁맞는	-859
▁살아	-860
▁엄마	-861
▁연습	-862
▁인정	-863
▁주말	-864
▁한번	-865
스러운	-866
▁갑자기	-867
▁이별이	-868
▁자신의	-869
▁사람이랑	-870
▁중요해요	-871
▁조심하세요	-872
▁망	-873
▁야	-874
폭풍	-875
▁되는	-876
▁사진	-877
▁엄청	-878
▁없을	-879
▁잊혀	-880
▁모르는	-881
▁합니다	-882
▁했는데	-883
▁사람들이	-884
▁알았는데	-885
▁강	-886
▁네	-887
▁음	-888
수록	-889
적이	-890
지지	-891
▁가끔	-892
▁모두	-893
▁복잡	-894
▁얼굴	-895
▁없네	-896
▁예뻐	-897
▁예의	-898
▁왔어	-899
▁재밌	-900
▁스스로	-901
▁여자가	-902
▁좋아할	-903
▁필요한	-904
하겠어요	-905
▁갖	-906
▁욕	-907
▁짧	-908
▁탈	-909
같은	-910
▁날씨	-911
▁남편	-912
▁상관	-913
▁쉬운	-914
▁자주	-915
▁지내	-916
달라고	-917
마세요	-918
▁만나고	-919
▁소개팅	-920
▁정리가	-921
▁짝남한테	-922
▁5	-923
▁극	-924
▁면	-925
왔어	-926
▁떠나	-927
▁마시	-928
▁뭘까	-929
▁보는	-930
▁보이	-931
▁아픈	-932
▁알바	-933
▁저랑	-934
었는데	-935
▁기분이	-936
▁당신이	-937
▁사람한테	-938
▁4	-939
▁끊	-940
▁듣	-941
▁옷	-942
▁흐	-943
거리	-944
기로	-945
다니	-946
력이	-947
없이	-948
▁눈물	-949
▁되나	-950
▁무서	-951
▁무시	-952
▁실수	-953
▁짜증	-954
▁피곤	-955
▁싶어요	-956
▁어떡해	-957
▁연락해	-958
▁있다면	-959
▁잘하는	-960
▁후폭풍	-961
▁생각보다	-962
▁모르겠어요	-963
▁견	-964
▁꽃	-965
▁둘	-966
▁똑	-967
▁월	-968
▁줘	-969
가고	-970
건가	-971
려요	-972
만큼	-973
쁘게	-974
해질	-975
▁나와	-976
▁도와	-977
▁별로	-978
▁아픔	-979
▁정도	-980
▁기다려	-981
▁만들어	-982
▁오늘은	-983
▁지금도	-984
▁받아들이	-985
▁본	-986
▁봄	-987
▁코	-988
▁흔	-989
일째	-990
지가	-991
천히	-992
해줘	-993
▁가족	-994
▁걸까	-995
▁극복	-996
▁끝나	-997
▁모습	-998
▁뭐가	-999
▁붙잡	-1000
▁빨리	-1001
▁사는	-1002
▁솔직	-1003
▁지켜	-1004
▁차단	-1005
▁학교	-1006
▁괜찮은	-1007
▁사랑에	-1008
▁잘하고	-1009
▁천천히	-1010
▁친구랑	-1011
▁6	-1012
▁갔	-1013
▁뒤	-1014
▁밤	-1015
▁빌	-1016
▁양	-1017
▁은	-1018
▁출	-1019
같아	-1020
마다	-1021
시간	-1022
▁감기	-1023
▁것이	-1024
▁그분	-1025
▁끝났	-1026
▁다녀	-1027
▁따뜻	-1028
▁마주	-1029
▁벌써	-1030
▁보여	-1031
▁설레	-1032
▁자기	-1033
▁점점	-1034
▁환승	-1035
기까지	-1036
▁맛있게	-1037
▁인연이	-1038
▁확신이	-1039
▁익	-1040
기는	-1041
이면	-1042
주는	-1043
▁내려	-1044
▁두려	-1045
▁만난	-1046
▁살펴	-1047
▁아이	-1048
▁운명	-1049
▁직장	-1050
▁하죠	-1051
▁힘이	-1052
겠지요	-1053
▁다가가	-1054
▁당신을	-1055
▁사람도	-1056
▁사세요	-1057
▁자신이	-1058
▁하는데	-1059
드릴게요	-1060
▁담	-1061
▁병	-1062
▁책	-1063
거야	-1064
라는	-1065
하나	-1066
▁날이	-1067
▁놓아	-1068
▁배우	-1069
▁봐요	-1070
▁잠시	-1071
▁주변	-1072
▁행동	-1073
▁이유가	-1074
▁첫사랑	-1075
▁하나씩	-1076
▁힘들었	-1077
하겠네요	-1078
▁연락하고	-1079
▁힘내세요	-1080
▁군	-1081
▁능	-1082
▁멀	-1083
▁베	-1084
▁응	-1085
▁찍	-1086
어가	-1087
있는	-1088
▁게임	-1089
▁나서	-1090
▁눈을	-1091
▁되길	-1092
▁성격	-1093
▁안녕	-1094
▁익숙	-1095
▁일찍	-1096
스러워	-1097
▁믿어요	-1098
▁사귀고	-1099
▁아닌데	-1100
▁언젠간	-1101
▁친구들	-1102
▁많았어요	-1103
▁뿐이에요	-1104
▁서로에게	-1105
▁신경쓰지	-1106
▁괴	-1107
▁교	-1108
▁맨	-1109
▁메	-1110
▁얘	-1111
로워	-1112
리지	-1113
이별	-1114
▁나도	-1115
▁나을	-1116
▁놀러	-1117
▁도전	-1118
▁마련	-1119
▁무엇	-1120
▁받고	-1121
▁스타	-1122
▁슬픈	-1123
▁않죠	-1124
▁있나	-1125
▁즐거	-1126
▁지났	-1127
▁집착	-1128
다보면	-1129
▁힘들다	-1130
▁해주세요	-1131
▁깊	-1132
▁명	-1133
남친	-1134
래도	-1135
에도	-1136
여친	-1137
▁가서	-1138
▁거죠	-1139
▁관리	-1140
▁나아	-1141
▁나오	-1142
▁느껴	-1143
▁아는	-1144
▁오랜	-1145
▁이겨	-1146
▁자존	-1147
▁주무	-1148
▁후련	-1149
▁만나는	-1150
▁행복해	-1151
▁힘들게	-1152
▁있었나봐요	-1153
▁곧	-1154
▁법	-1155
▁삶	-1156
▁척	-1157
▁헷	-1158
생활	-1159
어야	-1160
이는	-1161
하길	-1162
▁거짓	-1163
▁끝이	-1164
▁다행	-1165
▁말이	-1166
▁뭐야	-1167
▁알게	-1168
▁여유	-1169
▁연인	-1170
▁용기	-1171
▁우울	-1172
▁위해	-1173
▁잊지	-1174
▁자체	-1175
▁최고	-1176
▁카페	-1177
▁포기	-1178
▁헷갈	-1179
이었을	-1180
▁생각할	-1181
▁원하는	-1182
▁이상형	-1183
▁일어나	-1184
▁좋아해	-1185
▁못하겠어	-1186
▁아무것도	-1187
▁아무래도	-1188
▁이별한지	-1189
▁낫	-1190
▁봤	-1191
▁접	-1192
▁향	-1193
르고	-1194
사를	-1195
여행	-1196
정이	-1197
중에	-1198
지고	-1199
▁꿈에	-1200
▁눈이	-1201
▁되지	-1202
▁부족	-1203
▁비싸	-1204
▁소중	-1205
▁썸타	-1206
▁없이	-1207
▁응원	-1208
▁전에	-1209
▁했어	-1210
했어요	-1211
▁거짓말	-1212
▁곳으로	-1213
▁귀찮아	-1214
▁먹으면	-1215
▁보고싶	-1216
▁여친이	-1217
▁이별후	-1218
▁지금은	-1219
여보세요	-1220
▁먹어야지	-1221
▁사랑했던	-1222
▁주무세요	-1223
▁까	-1224
▁빼	-1225
▁읽	-1226
▁증	-1227
버렸	-1228
져요	-1229
한데	-1230
▁금방	-1231
▁늦지	-1232
▁다를	-1233
▁데려	-1234
▁미안	-1235
▁보면	-1236
▁보통	-1237
▁부러	-1238
▁생일	-1239
▁싸우	-1240
▁없죠	-1241
▁죽을	-1242
▁그녀를	-1243
▁나중에	-1244
▁많아요	-1245
▁사귀는	-1246
▁싶네요	-1247
▁아니라	-1248
▁않아도	-1249
▁예의가	-1250
▁전남친	-1251
▁친구를	-1252
▁필요해	-1253
었나봐요	-1254
▁괜찮을까	-1255
▁좋아하게	-1256
▁좋아하면	-1257
▁필요해요	-1258
▁가져보세요	-1259
▁근	-1260
▁냉	-1261
▁벗	-1262
▁숨	-1263
▁써	-1264
▁쓸	-1265
▁에	-1266
더라	-1267
리를	-1268
사친	-1269
야죠	-1270
움을	-1271
▁건지	-1272
▁고생	-1273
▁대로	-1274
▁맨날	-1275
▁미리	-1276
▁받는	-1277
▁부분	-1278
▁소식	-1279
▁애가	-1280
▁어렵	-1281
▁우산	-1282
▁월급	-1283
▁일을	-1284
▁잊는	-1285
▁작은	-1286
▁잠이	-1287
▁주는	-1288
▁중에	-1289
▁진정	-1290
▁충전	-1291
스럽게	-1292
이라면	-1293
해주는	-1294
했으면	-1295
▁감정을	-1296
▁남편이	-1297
▁당신은	-1298
▁때까지	-1299
▁만나지	-1300
▁만났어	-1301
▁없네요	-1302
▁이별의	-1303
▁전여친	-1304
겠습니다	-1305
▁중요하지	-1306
▁짝녀한테	-1307
▁친구한테	-1308
▁살펴보세요	-1309
▁헤어졌습니다	-1310
▁확인해보세요	-1311
▁높	-1312
▁산	-1313
▁폰	-1314
건지	-1315
대요	-1316
밖에	-1317
쇼핑	-1318
아서	-1319
으니	-1320
이가	-1321
장이	-1322
하려	-1323
하시	-1324
▁기회	-1325
▁되어	-1326
▁드는	-1327
▁로맨	-1328
▁바쁜	-1329
▁받을	-1330
▁방학	-1331
▁비밀	-1332
▁생길	-1333
▁쉬고	-1334
▁시험	-1335
▁아름	-1336
▁안나	-1337
▁안해	-1338
▁알고	-1339
▁앞에	-1340
▁약속	-1341
▁자책	-1342
▁잠깐	-1343
▁종교	-1344
▁편이	-1345
▁하늘	-1346
▁흘렀	-1347
야겠다	-1348
하겠죠	-1349
해야지	-1350
▁가세요	-1351
▁관심이	-1352
▁누구나	-1353
▁변화가	-1354
▁언제나	-1355
▁예쁘게	-1356
▁해봐요	-1357
▁확실한	-1358
▁힘들죠	-1359
▁고민이야	-1360
▁남자애가	-1361
▁연락해도	-1362
▁좋아하는데	-1363
▁사랑해주세요	-1364
겠네	-1365
기만	-1366
당히	-1367
들어	-1368
들은	-1369
리게	-1370
하니	-1371
▁가기	-1372
▁꾸준	-1373
▁끝내	-1374
▁돈이	-1375
▁마셔	-1376
▁맞춰	-1377
▁멋진	-1378
▁미치	-1379
▁바로	-1380
▁바쁘	-1381
▁분위	-1382
▁시원	-1383
▁않고	-1384
▁이번	-1385
▁이어	-1386
▁장난	-1387
▁즐기	-1388
▁타고	-1389
▁허전	-1390
이라는	-1391
▁고민이	-1392
▁궁금해	-1393
▁그래요	-1394
▁맛있는	-1395
▁사랑할	-1396
▁생각만	-1397
▁아닌지	-1398
▁알려줘	-1399
▁없다면	-1400
▁재미있	-1401
▁즐거운	-1402
▁같습니다	-1403
▁사랑하고	-1404
▁짝남이랑	-1405
▁힘들어요	-1406
▁골	-1407
▁옆	-1408
▁채	-1409
▁칭	-1410
들을	-1411
디어	-1412
일이	-1413
퇴근	-1414
▁당연	-1415
▁됐어	-1416
▁되네	-1417
▁드라	-1418
▁먹을	-1419
▁바라	-1420
▁바보	-1421
▁보지	-1422
▁쇼핑	-1423
▁스킨	-1424
▁시켜	-1425
▁어울	-1426
▁어쩌	-1427
▁여러	-1428
▁이러	-1429
▁절대	-1430
▁존중	-1431
▁취미	-1432
▁칭찬	-1433
▁해결	-1434
더라고	-1435
잖아요	-1436
줬으면	-1437
▁그리고	-1438
▁드디어	-1439
▁못하는	-1440
▁받아들	-1441
▁봅니다	-1442
▁상처받	-1443
▁이제는	-1444
▁있는지	-1445
▁좋겠죠	-1446
▁좋은데	-1447
▁중인데	-1448
▁여자애가	-1449
▁친구들이	-1450
▁힘들겠지만	-1451
▁등	-1452
가를	-1453
줄까	-1454
해져	-1455
▁가면	-1456
▁가야	-1457
▁간다	-1458
▁경우	-1459
▁곳이	-1460
▁동거	-1461
▁때도	-1462
▁마요	-1463
▁문자	-1464
▁뭔가	-1465
▁뭔지	-1466
▁미워	-1467
▁싫다	-1468
▁안경	-1469
▁않길	-1470
▁예민	-1471
▁예쁜	-1472
▁이성	-1473
▁일은	-1474
▁잊고	-1475
▁자격	-1476
▁조언	-1477
▁지쳤	-1478
▁차분	-1479
▁하셨	-1480
▁해서	-1481
▁헤아	-1482
보는게	-1483
해지는	-1484
▁가슴이	-1485
▁괜찮을	-1486
▁두려워	-1487
▁로맨틱	-1488
▁뭐라고	-1489
▁미련이	-1490
▁사람에	-1491
▁사랑해	-1492
▁시간은	-1493
▁어느덧	-1494
▁어려워	-1495
▁짜증나	-1496
더라고요	-1497
신가봐요	-1498
▁거기까지	-1499
▁아닐까요	-1500
▁않는다면	-1501
▁있습니다	-1502
▁자책하지	-1503
▁독	-1504
▁밀	-1505
▁삼	-1506
▁역	-1507
▁택	-1508
▁터	-1509
년이	-1510
받고	-1511
음이	-1512
이밍	-1513
이지	-1514
자리	-1515
전히	-1516
한게	-1517
해졌	-1518
▁10	-1519
▁것을	-1520
▁기본	-1521
▁까먹	-1522
▁나랑	-1523
▁되고	-1524
▁두달	-1525
▁못해	-1526
▁번호	-1527
▁보러	-1528
▁볼까	-1529
▁서운	-1530
▁슬프	-1531
▁썸녀	-1532
▁어쩔	-1533
▁오는	-1534
▁취직	-1535
▁커플	-1536
▁태어	-1537
▁해주	-1538
답니다	-1539
드려요	-1540
▁그대로	-1541
▁그러면	-1542
▁마음도	-1543
▁마음은	-1544
▁문제가	-1545
▁방법이	-1546
▁안되는	-1547
▁타이밍	-1548
▁헤어져	-1549
가봅니다	-1550
아보세요	-1551
▁물어보는	-1552
▁사랑하면	-1553
▁생각하고	-1554
▁축하해요	-1555
▁다행이에요	-1556
▁받아들이는	-1557
▁부담스러워	-1558
▁자연스러운	-1559
▁좋아하는게	-1560
▁꿨	-1561
▁뜻	-1562
▁멈	-1563
▁멍	-1564
▁쌓	-1565
▁클	-1566
▁특	-1567
▁희	-1568
니가	-1569
덤덤	-1570
때는	-1571
리스	-1572
마스	-1573
보여	-1574
생님	-1575
스크	-1576
식을	-1577
심해	-1578
야할	-1579
연애	-1580
자는	-1581
했다	-1582
▁갖고	-1583
▁군대	-1584
▁귀여	-1585
▁떨려	-1586
▁뭐든	-1587
▁배워	-1588
▁불편	-1589
▁사과	-1590
▁상담	-1591
▁소리	-1592
▁일주	-1593
▁잊을	-1594
▁자유	-1595
▁저를	-1596
▁적응	-1597
▁졸업	-1598
▁집중	-1599
▁최선	-1600
▁흔들	-1601
가세요	-1602
오세요	-1603
▁가지고	-1604
▁같네요	-1605
▁것보다	-1606
▁관심을	-1607
▁꾸준히	-1608
▁능력이	-1609
▁무서워	-1610
▁선생님	-1611
▁썸남이	-1612
▁어려운	-1613
▁용기를	-1614
▁위로해	-1615
▁이상한	-1616
▁잊어버	-1617
▁적당히	-1618
▁준비가	-1619
▁충분한	-1620
▁화장실	-1621
상이에요	-1622
▁기다리고	-1623
▁다음에는	-1624
▁말하세요	-1625
▁사람마다	-1626
▁않았으면	-1627
▁진심으로	-1628
▁헤어졌어	-1629
▁후회하지	-1630
▁사람이네요	-1631
▁힘들겠어요	-1632
▁삭	-1633
▁샀	-1634
냄새	-1635
만의	-1636
시켜	-1637
오네	-1638
치가	-1639
한거	-1640
한다	-1641
함이	-1642
▁고마	-1643
▁그건	-1644
▁끝을	-1645
▁나온	-1646
▁누가	-1647
▁당당	-1648
▁대학	-1649
▁두근	-1650
▁몰랐	-1651
▁몸이	-1652
▁배려	-1653
▁병원	-1654
▁삭제	-1655
▁생기	-1656
▁어색	-1657
▁연예	-1658
▁오빠	-1659
▁원래	-1660
▁위험	-1661
▁이기	-1662
▁일어	-1663
▁잠수	-1664
▁잠을	-1665
▁적극	-1666
▁좋았	-1667
▁질투	-1668
▁집안	-1669
▁청소	-1670
▁출근	-1671
▁키우	-1672
하려고	-1673
▁가야지	-1674
▁감정이	-1675
▁그녀가	-1676
▁그사람	-1677
▁남친이	-1678
▁받았어	-1679
▁사람과	-1680
▁스킨십	-1681
▁스타일	-1682
▁있나요	-1683
▁있네요	-1684
▁저에게	-1685
▁제대로	-1686
▁하는게	-1687
았나봐요	-1688
▁사람에게	-1689
▁않을까요	-1690
▁있겠어요	-1691
▁있잖아요	-1692
▁자신에게	-1693
▁후폭풍이	-1694
▁만나보세요	-1695
▁좋아하는지	-1696
▁S	-1697
▁각	-1698
▁걷	-1699
▁권	-1700
▁꼬	-1701
▁셀	-1702
▁철	-1703
▁체	-1704
▁톡	-1705
▁투	-1706
▁팔	-1707
가지	-1708
내고	-1709
내서	-1710
년째	-1711
놓고	-1712
려면	-1713
르는	-1714
사가	-1715
시길	-1716
시는	-1717
었다	-1718
이요	-1719
인거	-1720
▁감사	-1721
▁경험	-1722
▁꿈을	-1723
▁나눠	-1724
▁놀이	-1725
▁다이	-1726
▁담배	-1727
▁당황	-1728
▁무너	-1729
▁무뎌	-1730
▁발표	-1731
▁버려	-1732
▁버텨	-1733
▁보냈	-1734
▁본인	-1735
▁쉽게	-1736
▁싫은	-1737
▁안타	-1738
▁애랑	-1739
▁얘기	-1740
▁어플	-1741
▁올려	-1742
▁좋다	-1743
▁좋지	-1744
▁착각	-1745
▁편지	-1746
▁프로	-1747
▁하기	-1748
됩니다	-1749
인가봐	-1750
하다고	-1751
▁데려다	-1752
▁말하는	-1753
▁머리가	-1754
▁사람의	-1755
▁상황을	-1756
▁서로를	-1757
▁성격이	-1758
▁아름다	-1759
▁안하고	-1760
▁연예인	-1761
▁완전히	-1762
▁있어도	-1763
▁좋아한	-1764
▁하나도	-1765
▁해보는	-1766
▁행복한	-1767
▁후회할	-1768
▁되겠네요	-1769
▁만나자고	-1770
▁보고싶어	-1771
▁일이에요	-1772
▁자신감을	-1773
▁그런가봐요	-1774
▁겨	-1775
▁났	-1776
▁늘	-1777
▁판	-1778
고생	-1779
구나	-1780
리면	-1781
만이	-1782
상을	-1783
성이	-1784
시다	-1785
어머	-1786
없는	-1787
었네	-1788
워질	-1789
이길	-1790
장을	-1791
지네	-1792
질까	-1793
▁같네	-1794
▁과정	-1795
▁귀엽	-1796
▁기운	-1797
▁끝은	-1798
▁나타	-1799
▁동생	-1800
▁드시	-1801
▁말도	-1802
▁먹는	-1803
▁바꿔	-1804
▁바빠	-1805
▁발전	-1806
▁부탁	-1807
▁사실	-1808
▁살짝	-1809
▁새벽	-1810
▁생긴	-1811
▁속이	-1812
▁싶지	-1813
▁안됐	-1814
▁우선	-1815
▁위한	-1816
▁인사	-1817
▁일도	-1818
▁있고	-1819
▁점심	-1820
▁존재	-1821
▁주고	-1822
▁차이	-1823
▁피부	-1824
▁해줘	-1825
으면서	-1826
인가요	-1827
▁그리워	-1828
▁기다릴	-1829
▁놀아요	-1830
▁눈물이	-1831
▁돌아오	-1832
▁맘고생	-1833
▁못하고	-1834
▁무엇이	-1835
▁아무리	-1836
▁안들어	-1837
▁연습을	-1838
▁한동안	-1839
▁호감이	-1840
▁혼자가	-1841
▁힘들지	-1842
리스마스	-1843
했습니다	-1844
▁만나세요	-1845
▁놓아주세요	-1846
▁생각하세요	-1847
▁축하드려요	-1848
▁말씀해주세요	-1849
▁시작해보세요	-1850
NS	-1851
▁7	-1852
▁깔	-1853
▁꺼	-1854
▁뜨	-1855
▁리	-1856
▁침	-1857
나는	-1858
냐고	-1859
력을	-1860
말고	-1861
봐도	-1862
상이	-1863
어트	-1864
었을	-1865
웨딩	-1866
음을	-1867
이다	-1868
줬어	-1869
▁가치	-1870
▁갈까	-1871
▁걸로	-1872
▁계획	-1873
▁고쳐	-1874
▁괜히	-1875
▁괴롭	-1876
▁그랬	-1877
▁그럼	-1878
▁다니	-1879
▁듣고	-1880
▁따로	-1881
▁떠난	-1882
▁면접	-1883
▁목소	-1884
▁못한	-1885
▁무섭	-1886
▁바뀌	-1887
▁받지	-1888
▁배고	-1889
▁버스	-1890
▁비가	-1891
▁살까	-1892
▁속상	-1893
▁쉬는	-1894
▁쓰레	-1895
▁애매	-1896
▁없나	-1897
▁없다	-1898
▁없애	-1899
▁우연	-1900
▁의지	-1901
▁이름	-1902
▁이용	-1903
▁자고	-1904
▁저녁	-1905
▁주면	-1906
▁지우	-1907
▁지쳐	-1908
▁퇴근	-1909
▁프사	-1910
▁피해	-1911
▁학원	-1912
▁한잔	-1913
▁했던	-1914
다가도	-1915
두세요	-1916
드세요	-1917
하다면	-1918
▁SNS	-1919
▁가자고	-1920
▁남자를	-1921
▁되는데	-1922
▁만나서	-1923
▁아는데	-1924
▁외로워	-1925
▁이상해	-1926
▁지나갈	-1927
▁추억이	-1928
▁친구로	-1929
▁괜찮아졌	-1930
▁괜찮아질	-1931
▁다이어트	-1932
▁생각하는	-1933
▁연락하면	-1934
▁오랜만에	-1935
▁좋을텐데	-1936
하지마세요	-1937
▁모르겠네요	-1938
▁사랑하는데	-1939
▁사랑한다고	-1940
▁여자친구와	-1941
▁자연스럽게	-1942
▁크리스마스	-1943
▁현상이에요	-1944
▁말씀해보세요	-1945
▁이야기해보세요	-1946
▁8	-1947
▁낭	-1948
▁뒷	-1949
▁뿌	-1950
▁억	-1951
▁업	-1952
▁트	-1953
▁페	-1954
느라	-1955
됐어	-1956
리기	-1957
서관	-1958
소한	-1959
어서	-1960
였어	-1961
주가	-1962
지면	-1963
치고	-1964
치는	-1965
했을	-1966
▁가벼	-1967
▁간절	-1968
▁거야	-1969
▁거절	-1970
▁건가	-1971
▁견디	-1972
▁꿈이	-1973
▁냄새	-1974
▁누군	-1975
▁눈에	-1976
▁느끼	-1977
▁대해	-1978
▁돈을	-1979
▁되면	-1980
▁많죠	-1981
▁미래	-1982
▁바뀔	-1983
▁반복	-1984
▁불안	-1985
▁비교	-1986
▁사라	-1987
▁소화	-1988
▁신혼	-1989
▁심해	-1990
▁안와	-1991
▁안좋	-1992
▁영원	-1993
▁오해	-1994
▁이거	-1995
▁이사	-1996
▁이혼	-1997
▁인형	-1998
▁일상	-1999
▁있지	-2000
▁주지	-2001
▁취업	-2002
일지도	-2003
하니까	-2004
해봐요	-2005
해지면	-2006
▁결혼식	-2007
▁나이가	-2008
▁날씨가	-2009
▁내일은	-2010
▁도서관	-2011
▁될까요	-2012
▁만나면	-2013
▁뭐하지	-2014
▁분위기	-2015
▁붙잡고	-2016
▁상처를	-2017
▁선택일	-2018
▁소중한	-2019
▁쉬세요	-2020
▁안해도	-2021
▁앞에서	-2022
▁앞으로	-2023
▁어쩌지	-2024
▁없는데	-2025
▁여유를	-2026
▁연락처	-2027
▁일주일	-2028
▁장거리	-2029
▁필요할	-2030
▁했으면	-2031
▁호감을	-2032
▁확실히	-2033
을거예요	-2034
▁기다리는	-2035
▁만났는데	-2036
▁부담스럽	-2037
▁생각나는	-2038
▁않았어요	-2039
▁연락하지	-2040
▁좋아할까	-2041
▁궁금하네요	-2042
▁사람이에요	-2043
▁지켜보세요	-2044
▁짝사랑하는	-2045
▁들어드릴게요	-2046
▁끄	-2047
▁됨	-2048
▁든	-2049
▁딸	-2050
▁뻔	-2051
▁썼	-2052
▁쐬	-2053
▁염	-2054
▁잤	-2055
▁짐	-2056
▁찌	-2057
▁틀	-2058
▁헛	-2059
간이	-2060
거려	-2061
러가	-2062
세먼	-2063
심이	-2064
었던	-2065
요일	-2066
으시	-2067
인듯	-2068
주지	-2069
하셨	-2070
할지	-2071
▁가까	-2072
▁갑작	-2073
▁개인	-2074
▁거울	-2075
▁결과	-2076
▁기념	-2077
▁깔끔	-2078
▁나의	-2079
▁내는	-2080
▁느려	-2081
▁대단	-2082
▁되죠	-2083
▁때는	-2084
▁멋있	-2085
▁못할	-2086
▁미친	-2087
▁불러	-2088
▁비슷	-2089
▁사귈	-2090
▁슬퍼	-2091
▁썸이	-2092
▁않네	-2093
▁야근	-2094
▁역시	-2095
▁옆에	-2096
▁완벽	-2097
▁왔다	-2098
▁잡고	-2099
▁조급	-2100
▁졸려	-2101
▁차별	-2102
▁치과	-2103
▁크게	-2104
▁호감	-2105
듭니다	-2106
면서도	-2107
으려고	-2108
적이든	-2109
▁가능할	-2110
▁걱정돼	-2111
▁걱정되	-2112
▁그녀의	-2113
▁꿈에서	-2114
▁달라고	-2115
▁때네요	-2116
▁마스크	-2117
▁무서운	-2118
▁벗어나	-2119
▁상황이	-2120
▁시작이	-2121
▁쓰레기	-2122
▁아무도	-2123
▁않으면	-2124
▁어디서	-2125
▁어때요	-2126
▁얼마나	-2127
▁엄마가	-2128
▁연애는	-2129
▁예뻐요	-2130
▁왔는데	-2131
▁저도요	-2132
▁집안일	-2133
▁집에서	-2134
▁타는데	-2135
▁편하게	-2136
▁고민하고	-2137
▁사랑해서	-2138
▁생각나네	-2139
▁썸남한테	-2140
▁어떡하지	-2141
▁연락하는	-2142
▁좋아하고	-2143
▁친구들과	-2144
▁필요하죠	-2145
▁하다보면	-2146
▁했습니다	-2147
▁헤어져야	-2148
▁헷갈리게	-2149
▁흘렀네요	-2150
▁남자친구의	-2151
▁알아보세요	-2152
▁여자친구의	-2153
▁이야기네요	-2154
▁있으니까요	-2155
▁전해보세요	-2156
▁지쳤나봐요	-2157
▁노력해보세요	-2158
▁이해해주세요	-2159
▁잊어버리세요	-2160
▁갚	-2161
▁긍	-2162
▁농	-2163
▁움	-2164
▁죄	-2165
▁창	-2166
▁춥	-2167
▁패	-2168
▁푹	-2169
▁혹	-2170
같이	-2171
남자	-2172
될까	-2173
러워	-2174
려도	-2175
머리	-2176
먹고	-2177
방법	-2178
싶다	-2179
어진	-2180
여자	-2181
오는	-2182
이고	-2183
주고	-2184
준비	-2185
할때	-2186
호흡	-2187
▁거지	-2188
▁견뎌	-2189
▁고통	-2190
▁공허	-2191
▁권태	-2192
▁긍정	-2193
▁기울	-2194
▁깨달	-2195
▁꿨어	-2196
▁나올	-2197
▁남았	-2198
▁남을	-2199
▁남의	-2200
▁놀고	-2201
▁놀아	-2202
▁동물	-2203
▁라면	-2204
▁마무	-2205
▁만드	-2206
▁말할	-2207
▁몰라	-2208
▁문득	-2209
▁보일	-2210
▁부럽	-2211
▁분명	-2212
▁사고	-2213
▁사귄	-2214
▁사야	-2215
▁사회	-2216
▁샀어	-2217
▁상태	-2218
▁생활	-2219
▁선톡	-2220
▁시계	-2221
▁실망	-2222
▁쓰는	-2223
▁아까	-2224
▁않게	-2225
▁알았	-2226
▁야경	-2227
▁어서	-2228
▁어장	-2229
▁외로	-2230
▁원망	-2231
▁유지	-2232
▁은근	-2233
▁이건	-2234
▁이럴	-2235
▁이루	-2236
▁인간	-2237
▁전부	-2238
▁정확	-2239
▁줘도	-2240
▁지워	-2241
▁차가	-2242
▁추워	-2243
▁친한	-2244
▁택시	-2245
▁텐데	-2246
▁판단	-2247
▁평소	-2248
▁혹시	-2249
▁화가	-2250
▁희망	-2251
립니다	-2252
었어요	-2253
으니까	-2254
한다면	-2255
해볼까	-2256
▁결정을	-2257
▁그동안	-2258
▁그래서	-2259
▁기념일	-2260
▁남사친	-2261
▁당신도	-2262
▁먹을까	-2263
▁무덤덤	-2264
▁미세먼	-2265
▁변화를	-2266
▁상처가	-2267
▁생겼어	-2268
▁서로의	-2269
▁실감이	-2270
▁심호흡	-2271
▁썸인지	-2272
▁썸타는	-2273
▁아침에	-2274
▁안타깝	-2275
▁언제쯤	-2276
▁없다고	-2277
▁여사친	-2278
▁여행을	-2279
▁연애를	-2280
▁용기가	-2281
▁이유를	-2282
▁인생은	-2283
▁있는게	-2284
▁있지만	-2285
▁잊어야	-2286
▁잊혀지	-2287
▁잘해줘	-2288
▁저한테	-2289
▁지나갔	-2290
▁지내고	-2291
▁짝녀랑	-2292
▁찾아올	-2293
▁필요는	-2294
▁할텐데	-2295
▁해야지	-2296
▁후회가	-2297
였나봐요	-2298
▁가지세요	-2299
▁남자들은	-2300
▁당당하게	-2301
▁만나는게	-2302
▁받아들여	-2303
▁버리세요	-2304
▁사람으로	-2305
▁사랑하지	-2306
▁상대방을	-2307
▁생각하지	-2308
▁아니라고	-2309
▁여기까지	-2310
▁이야기를	-2311
▁좋아해도	-2312
▁즐기세요	-2313
▁행복하게	-2314
▁회사에서	-2315
▁결정이었을	-2316
▁무시하세요	-2317
▁않으니까요	-2318
▁여자친구랑	-2319
▁헤어졌는데	-2320
▁기다려보세요	-2321
▁만들어보세요	-2322
▁걔	-2323
▁낮	-2324
▁넣	-2325
▁놔	-2326
▁딴	-2327
▁센	-2328
▁쓴	-2329
▁씻	-2330
▁컨	-2331
▁컴	-2332
거를	-2333
나게	-2334
냐에	-2335
되는	-2336
두고	-2337
디션	-2338
렸어	-2339
리네	-2340
릴까	-2341
스타	-2342
점을	-2343
지로	-2344
치지	-2345
해줄	-2346
했네	-2347
▁가요	-2348
▁거니	-2349
▁계절	-2350
▁공통	-2351
▁그것	-2352
▁길이	-2353
▁깊은	-2354
▁끝난	-2355
▁나왔	-2356
▁나은	-2357
▁놓고	-2358
▁다들	-2359
▁다양	-2360
▁더워	-2361
▁동안	-2362
▁두고	-2363
▁때론	-2364
▁때를	-2365
▁마다	-2366
▁막말	-2367
▁만든	-2368
▁말투	-2369
▁먹었	-2370
▁멈추	-2371
▁반대	-2372
▁봐도	-2373
▁소문	-2374
▁소원	-2375
▁수가	-2376
▁수록	-2377
▁스키	-2378
▁신고	-2379
▁쐬고	-2380
▁아예	-2381
▁안전	-2382
▁어린	-2383
▁울적	-2384
▁음악	-2385
▁이게	-2386
▁있길	-2387
▁자세	-2388
▁조절	-2389
▁중국	-2390
▁지난	-2391
▁진급	-2392
▁짧은	-2393
▁채워	-2394
▁축구	-2395
▁취향	-2396
▁클럽	-2397
▁통보	-2398
▁편한	-2399
▁편할	-2400
▁평생	-2401
▁피할	-2402
▁하게	-2403
▁현금	-2404
▁현재	-2405
버렸어	-2406
일까요	-2407
해주고	-2408
▁가치관	-2409
▁감정에	-2410
▁거겠죠	-2411
▁그녀는	-2412
▁나왔어	-2413
▁됐으면	-2414
▁되기도	-2415
▁됩니다	-2416
▁드라마	-2417
▁똑같은	-2418
▁만난지	-2419
▁많은데	-2420
▁모르고	-2421
▁미안해	-2422
▁방학이	-2423
▁부러워	-2424
▁상대를	-2425
▁생각하	-2426
▁선물이	-2427
▁선택을	-2428
▁시어머	-2429
▁아니면	-2430
▁아프네	-2431
▁안돼요	-2432
▁안하는	-2433
▁애한테	-2434
▁언젠가	-2435
▁없어서	-2436
▁없으면	-2437
▁연락은	-2438
▁운동을	-2439
▁위로가	-2440
▁이겨낼	-2441
▁있겠죠	-2442
▁있겠지	-2443
▁자신에	-2444
▁좋지만	-2445
▁진정한	-2446
▁최고죠	-2447
▁하면서	-2448
▁한달이	-2449
▁행복할	-2450
▁가능성이	-2451
▁달라지는	-2452
▁떨어졌어	-2453
▁말이에요	-2454
▁부러워요	-2455
▁상대방이	-2456
▁생겼는데	-2457
▁아니라면	-2458
▁안됐는데	-2459
▁알면서도	-2460
▁용기내서	-2461
▁이성으로	-2462
▁자존감이	-2463
▁좋아하던	-2464
▁지금처럼	-2465
▁짝사랑이	-2466
▁충분해요	-2467
▁한동안은	-2468
▁힘들어서	-2469
▁힘들었을	-2470
▁방법이에요	-2471
▁부담스럽지	-2472
▁사람들에게	-2473
▁사랑한다면	-2474
▁여자애한테	-2475
▁응원합니다	-2476
▁있을거예요	-2477
▁적극적으로	-2478
▁정리하는게	-2479
▁헤어지자고	-2480
▁준비해보세요	-2481
ns	-2482
▁곁	-2483
▁깎	-2484
▁넌	-2485
▁뛰	-2486
▁맥	-2487
▁밝	-2488
▁악	-2489
▁으	-2490
▁잃	-2491
▁짓	-2492
▁째	-2493
▁찬	-2494
▁케	-2495
▁합	-2496
▁헬	-2497
가네	-2498
가면	-2499
가봐	-2500
간의	-2501
겼어	-2502
데요	-2503
배가	-2504
부를	-2505
수도	-2506
시면	-2507
식이	-2508
아야	-2509
아지	-2510
없어	-2511
울까	-2512
웠어	-2513
이팅	-2514
장고	-2515
전에	-2516
전환	-2517
지를	-2518
통보	-2519
하러	-2520
하루	-2521
sns	-2522
▁각자	-2523
▁갔다	-2524
▁거의	-2525
▁걸릴	-2526
▁것은	-2527
▁결심	-2528
▁골라	-2529
▁곳에	-2530
▁과일	-2531
▁교회	-2532
▁근처	-2533
▁글을	-2534
▁긴장	-2535
▁나면	-2536
▁나쁘	-2537
▁남겨	-2538
▁늦게	-2539
▁단단	-2540
▁달달	-2541
▁당장	-2542
▁두번	-2543
▁둘이	-2544
▁드네	-2545
▁만족	-2546
▁말까	-2547
▁말은	-2548
▁맥주	-2549
▁무리	-2550
▁바꾸	-2551
▁바꿀	-2552
▁밖에	-2553
▁변덕	-2554
▁분이	-2555
▁불행	-2556
▁사용	-2557
▁산책	-2558
▁상사	-2559
▁새로	-2560
▁설렘	-2561
▁셀프	-2562
▁시기	-2563
▁신청	-2564
▁싶네	-2565
▁쓰고	-2566
▁쓸데	-2567
▁아빠	-2568
▁알면	-2569
▁여기	-2570
▁예쁘	-2571
▁오면	-2572
▁올라	-2573
▁왜이	-2574
▁외국	-2575
▁움직	-2576
▁있네	-2577
▁자리	-2578
▁잘생	-2579
▁잘해	-2580
▁전공	-2581
▁전환	-2582
▁제발	-2583
▁중간	-2584
▁진실	-2585
▁집이	-2586
▁초대	-2587
▁최악	-2588
▁태도	-2589
▁페북	-2590
▁하네	-2591
▁화를	-2592
▁휴가	-2593
더라도	-2594
만으로	-2595
싶은데	-2596
어가네	-2597
을지도	-2598
줄게요	-2599
하거나	-2600
하지만	-2601
▁곳에서	-2602
▁공부는	-2603
▁관계를	-2604
▁그렇지	-2605
▁기회가	-2606
▁끝까지	-2607
▁나이는	-2608
▁남자는	-2609
▁내세요	-2610
▁냉장고	-2611
▁느낌이	-2612
▁따뜻한	-2613
▁떨어져	-2614
▁마무리	-2615
▁모습이	-2616
▁물어보	-2617
▁물어봐	-2618
▁뭐하고	-2619
▁믿음이	-2620
▁부족한	-2621
▁사소한	-2622
▁사이가	-2623
▁상관없	-2624
▁생각에	-2625
▁생각은	-2626
▁생각한	-2627
▁선물을	-2628
▁시원한	-2629
▁썸인데	-2630
▁아니야	-2631
▁여자를	-2632
▁온전히	-2633
▁인기가	-2634
▁있다고	-2635
▁정리할	-2636
▁제자리	-2637
▁좋겠지	-2638
▁지났네	-2639
▁진심을	-2640
▁집들이	-2641
▁차분히	-2642
▁최선의	-2643
▁파이팅	-2644
▁표현해	-2645
셨나봐요	-2646
이었으면	-2647
▁고백해도	-2648
▁그렇지만	-2649
▁기분전환	-2650
▁마음으로	-2651
▁무엇이든	-2652
▁부럽네요	-2653
▁부모님이	-2654
▁사랑으로	-2655
▁썸남이랑	-2656
▁아름다운	-2657
▁아프네요	-2658
▁없나봐요	-2659
▁이별통보	-2660
▁일이네요	-2661
▁좋겠지만	-2662
▁좋아해요	-2663
▁중요하죠	-2664
▁피하세요	-2665
▁하루하루	-2666
▁하셨네요	-2667
▁환승이별	-2668
▁힘들겠지	-2669
▁남자친구와	-2670
▁생각이에요	-2671
▁습관이에요	-2672
▁알려주세요	-2673
▁적어보세요	-2674
▁힘들겠네요	-2675
▁고백해보세요	-2676
▁사용해보세요	-2677
▁필요하겠네요	-2678
▁힘들었겠어요	-2679
▁9	-2680
▁김	-2681
▁꿀	-2682
▁디	-2683
▁맡	-2684
▁백	-2685
▁벚	-2686
▁블	-2687
▁뽑	-2688
▁숙	-2689
▁싱	-2690
▁콩	-2691
▁푸	-2692
▁핑	-2693
가락	-2694
갈까	-2695
갔어	-2696
규직	-2697
기간	-2698
나면	-2699
달째	-2700
대폰	-2701
도록	-2702
듯이	-2703
래요	-2704
먹기	-2705
무원	-2706
부로	-2707
샤워	-2708
순위	-2709
시락	-2710
았던	-2711
오면	-2712
우면	-2713
유증	-2714
이니	-2715
인이	-2716
장면	-2717
제를	-2718
지게	-2719
포즈	-2720
하던	-2721
혼자	-2722
▁30	-2723
▁간접	-2724
▁겨울	-2725
▁고맙	-2726
▁공시	-2727
▁과거	-2728
▁과식	-2729
▁교양	-2730
▁글로	-2731
▁기술	-2732
▁남아	-2733
▁낫죠	-2734
▁내요	-2735
▁다되	-2736
▁달콤	-2737
▁됐네	-2738
▁떨리	-2739
▁라고	-2740
▁마실	-2741
▁많을	-2742
▁맘에	-2743
▁맘이	-2744
▁맛난	-2745
▁매력	-2746
▁머릿	-2747
▁메뉴	-2748
▁면도	-2749
▁모아	-2750
▁목표	-2751
▁물리	-2752
▁밀당	-2753
▁반지	-2754
▁벚꽃	-2755
▁변명	-2756
▁보기	-2757
▁보니	-2758
▁보험	-2759
▁부딪	-2760
▁부자	-2761
▁빠르	-2762
▁선이	-2763
▁소비	-2764
▁심심	-2765
▁썸의	-2766
▁아껴	-2767
▁아쉬	-2768
▁애정	-2769
▁어찌	-2770
▁오네	-2771
▁오랫	-2772
▁외롭	-2773
▁용돈	-2774
▁용서	-2775
▁이뤄	-2776
▁이불	-2777
▁인기	-2778
▁있게	-2779
▁절약	-2780
▁죽고	-2781
▁중독	-2782
▁지칠	-2783
▁참고	-2784
▁청첩	-2785
▁파혼	-2786
▁편안	-2787
▁풀릴	-2788
▁한다	-2789
▁행운	-2790
▁향수	-2791
▁헬스	-2792
거같아	-2793
된다고	-2794
었으면	-2795
이라고	-2796
이라니	-2797
장에서	-2798
하기는	-2799
하는지	-2800
하다가	-2801
하자고	-2802
할게요	-2803
▁sns	-2804
▁건강에	-2805
▁공무원	-2806
▁관계가	-2807
▁귀여워	-2808
▁그만큼	-2809
▁극복할	-2810
▁나에게	-2811
▁남자랑	-2812
▁노래방	-2813
▁달라지	-2814
▁도시락	-2815
▁됐는데	-2816
▁드라이	-2817
▁들어가	-2818
▁들어와	-2819
▁모습을	-2820
▁뭐라도	-2821
▁바쁘게	-2822
▁배고파	-2823
▁병원에	-2824
▁보내고	-2825
▁보이고	-2826
▁사귀기	-2827
▁사랑했	-2828
▁살아야	-2829
▁새벽에	-2830
▁선물은	-2831
▁세상에	-2832
▁시간도	-2833
▁시기가	-2834
▁아무렇	-2835
▁아프다	-2836
▁않는데	-2837
▁앞머리	-2838
▁억지로	-2839
▁여자랑	-2840
▁여전히	-2841
▁연애가	-2842
▁우세요	-2843
▁울어도	-2844
▁의사를	-2845
▁인생이	-2846
▁있다는	-2847
▁있어서	-2848
▁있으니	-2849
▁자격이	-2850
▁자신만	-2851
▁전화를	-2852
▁준비를	-2853
▁찾아가	-2854
▁친구의	-2855
▁태어난	-2856
▁표현이	-2857
▁피곤해	-2858
▁혼자만	-2859
▁혼자서	-2860
▁휴대폰	-2861
셔보세요	-2862
시겠어요	-2863
어주세요	-2864
해야할까	-2865
했겠어요	-2866
▁걱정하지	-2867
▁나가세요	-2868
▁내보세요	-2869
▁누군가를	-2870
▁따뜻하게	-2871
▁만나기로	-2872
▁만들어요	-2873
▁맞는걸까	-2874
▁보고싶다	-2875
▁생각하면	-2876
▁솔직하게	-2877
▁스트레칭	-2878
▁싶습니다	-2879
▁않겠지만	-2880
▁없겠네요	-2881
▁여자들은	-2882
▁여자한테	-2883
▁이별에는	-2884
▁잊으세요	-2885
▁잘했어요	-2886
▁점심시간	-2887
▁준비하는	-2888
▁하나봐요	-2889
▁했나봐요	-2890
▁걸어보세요	-2891
▁고백했는데	-2892
▁나눠보세요	-2893
▁남자친구랑	-2894
▁다녀오세요	-2895
▁다르겠지만	-2896
▁돌려보세요	-2897
▁믿어보세요	-2898
▁바쁜가봐요	-2899
▁스스로에게	-2900
▁좋아해주는	-2901
▁지금이라도	-2902
▁친구들이랑	-2903
▁필요하다면	-2904
▁힘든가봅니다	-2905
▁겁	-2906
▁격	-2907
▁급	-2908
▁깜	-2909
▁꼼	-2910
▁끈	-2911
▁넓	-2912
▁녹	-2913
▁놈	-2914
▁닮	-2915
▁땀	-2916
▁띄	-2917
▁잇	-2918
▁찔	-2919
▁쳐	-2920
▁털	-2921
거죠	-2922
까봐	-2923
나고	-2924
나서	-2925
내는	-2926
냈어	-2927
년의	-2928
다발	-2929
데이	-2930
되면	-2931
든지	-2932
따라	-2933
라리	-2934
라이	-2935
렌타	-2936
려구	-2937
려나	-2938
린다	-2939
받아	-2940
번호	-2941
보내	-2942
보니	-2943
분이	-2944
빼로	-2945
생숭	-2946
어두	-2947
정도	-2948
주려	-2949
지마	-2950
치기	-2951
터리	-2952
테리	-2953
하긴	-2954
하대	-2955
함을	-2956
▁가도	-2957
▁감성	-2958
▁개강	-2959
▁거면	-2960
▁경쟁	-2961
▁곁에	-2962
▁그는	-2963
▁그대	-2964
▁기원	-2965
▁깨끗	-2966
▁남기	-2967
▁내리	-2968
▁너를	-2969
▁노후	-2970
▁놀랐	-2971
▁눈치	-2972
▁늦은	-2973
▁답장	-2974
▁대출	-2975
▁데는	-2976
▁떠오	-2977
▁맛집	-2978
▁맞추	-2979
▁매달	-2980
▁명절	-2981
▁모른	-2982
▁몰래	-2983
▁못잊	-2984
▁무거	-2985
▁반가	-2986
▁받은	-2987
▁밝혀	-2988
▁버릴	-2989
▁별거	-2990
▁보다	-2991
▁봄이	-2992
▁빠를	-2993
▁사업	-2994
▁살기	-2995
▁삶을	-2996
▁생겨	-2997
▁샤워	-2998
▁성장	-2999
▁속에	-3000
▁수다	-3001
▁술마	-3002
▁술을	-3003
▁심경	-3004
▁싱숭	-3005
▁썸은	-3006
▁썸을	-3007
▁애들	-3008
▁어머	-3009
▁업무	-3010
▁없지	-3011
▁에휴	-3012
▁여름	-3013
▁염색	-3014
▁왔네	-3015
▁외모	-3016
▁유부	-3017
▁은연	-3018
▁의외	-3019
▁이미	-3020
▁인내	-3021
▁입을	-3022
▁잘되	-3023
▁장소	-3024
▁중인	-3025
▁지는	-3026
▁참는	-3027
▁콩깍	-3028
▁통해	-3029
▁투자	-3030
▁핑계	-3031
▁하다	-3032
▁하던	-3033
▁해보	-3034
▁회식	-3035
▁회원	-3036
▁휴식	-3037
▁흐르	-3038
갑니다	-3039
기세요	-3040
내세요	-3041
르세요	-3042
셨네요	-3043
시군요	-3044
왔는데	-3045
을거라	-3046
이었길	-3047
졌으면	-3048
줬는데	-3049
하기도	-3050
하느라	-3051
하는거	-3052
하지는	-3053
▁가끔은	-3054
▁가는데	-3055
▁감정의	-3056
▁거리를	-3057
▁결혼은	-3058
▁고민임	-3059
▁고백을	-3060
▁과정이	-3061
▁꽃다발	-3062
▁나보다	-3063
▁나을까	-3064
▁나혼자	-3065
▁남자들	-3066
▁내려놓	-3067
▁너에게	-3068
▁노력하	-3069
▁달라진	-3070
▁답답한	-3071
▁답답해	-3072
▁도와줘	-3073
▁도움을	-3074
▁되는지	-3075
▁마시고	-3076
▁말하지	-3077
▁못해요	-3078
▁받으면	-3079
▁발렌타	-3080
▁배우는	-3081
▁보내는	-3082
▁보이지	-3083
▁복잡한	-3084
▁본인의	-3085
▁부분이	-3086
▁빼빼로	-3087
▁사진을	-3088
▁생겼네	-3089
▁솔직한	-3090
▁쉬어도	-3091
▁습관을	-3092
▁않아서	-3093
▁않을까	-3094
▁알아차	-3095
▁없을까	-3096
▁연애에	-3097
▁완벽한	-3098
▁왔으면	-3099
▁외로운	-3100
▁우리는	-3101
▁위로봇	-3102
▁이러지	-3103
▁이별도	-3104
▁이별에	-3105
▁이어나	-3106
▁이유는	-3107
▁이제야	-3108
▁이해가	-3109
▁인생을	-3110
▁일어났	-3111
▁일하는	-3112
▁있지요	-3113
▁자체가	-3114
▁재미가	-3115
▁정리를	-3116
▁정신차	-3117
▁좋으면	-3118
▁주말에	-3119
▁주말이	-3120
▁주변에	-3121
▁차라리	-3122
▁표현을	-3123
▁해주는	-3124
▁행복은	-3125
▁행복을	-3126
▁헤어질	-3127
▁현실을	-3128
▁현재를	-3129
▁회사는	-3130
겨보세요	-3131
▁가능해요	-3132
▁결혼하면	-3133
▁그녀에게	-3134
▁기다리면	-3135
▁기대세요	-3136
▁노력하는	-3137
▁다르겠죠	-3138
▁다음부터	-3139
▁두근거리	-3140
▁로맨틱한	-3141
▁마련이죠	-3142
▁마음대로	-3143
▁바쁘거나	-3144
▁상대에게	-3145
▁슬프네요	-3146
▁싱숭생숭	-3147
▁써보세요	-3148
▁않나봐요	-3149
▁알다가도	-3150
▁어려워요	-3151
▁어울리는	-3152
▁오랫동안	-3153
▁익숙해지	-3154
▁있었으면	-3155
▁있을까요	-3156
▁있을지도	-3157
▁정리하는	-3158
▁좋아했던	-3159
▁지났네요	-3160
▁직장에서	-3161
▁짝사랑은	-3162
▁타이밍이	-3163
▁프로포즈	-3164
▁해야할까	-3165
▁헤아리는	-3166
▁헤어졌네	-3167
▁헤어지면	-3168
▁헤어지지	-3169
▁현실적인	-3170
▁흔들리지	-3171
▁힘듭니다	-3172
으신가봐요	-3173
인가봅니다	-3174
▁감사합니다	-3175
▁고생했어요	-3176
▁골라보세요	-3177
▁되었습니다	-3178
▁드셔보세요	-3179
▁들어보세요	-3180
▁마련이에요	-3181
▁마지막으로	-3182
▁맞았나봐요	-3183
▁스트레스가	-3184
▁시어머니가	-3185
▁아니니까요	-3186
▁있더라고요	-3187
▁조금이라도	-3188
▁다가가보세요	-3189
▁로맨틱하네요	-3190
▁복잡하겠어요	-3191
▁부탁해보세요	-3192
▁여자친구에게	-3193
▁표현해보세요	-3194
▁A	-3195
▁널	-3196
▁년	-3197
▁늙	-3198
▁땡	-3199
▁봉	-3200
▁섬	-3201
▁씁	-3202
▁얻	-3203
▁옴	-3204
▁왕	-3205
▁왤	-3206
▁웬	-3207
▁젖	-3208
▁짱	-3209
▁폭	-3210
▁형	-3211
▁효	-3212
각이	-3213
걸로	-3214
겹살	-3215
공평	-3216
난다	-3217
답을	-3218
대한	-3219
도가	-3220
럽게	-3221
려서	-3222
만은	-3223
부여	-3224
분들	-3225
선을	-3226
센터	-3227
셔요	-3228
숙사	-3229
스는	-3230
시원	-3231
었길	-3232
육아	-3233
이스	-3234
있어	-3235
정보	-3236
정을	-3237
주면	-3238
지기	-3239
쳤어	-3240
통수	-3241
해진	-3242
활동	-3243
히는	-3244
▁가만	-3245
▁간단	-3246
▁감고	-3247
▁같지	-3248
▁걸리	-3249
▁걸어	-3250
▁구멍	-3251
▁귀가	-3252
▁그립	-3253
▁기간	-3254
▁기준	-3255
▁길러	-3256
▁깨요	-3257
▁나지	-3258
▁남은	-3259
▁너도	-3260
▁느낄	-3261
▁다닐	-3262
▁다리	-3263
▁다정	-3264
▁단계	-3265
▁답이	-3266
▁되돌	-3267
▁들고	-3268
▁딸기	-3269
▁똑똑	-3270
▁로또	-3271
▁많지	-3272
▁매너	-3273
▁멀리	-3274
▁멀어	-3275
▁메모	-3276
▁모자	-3277
▁무색	-3278
▁문신	-3279
▁뭐라	-3280
▁바다	-3281
▁반응	-3282
▁받으	-3283
▁보낼	-3284
▁봉사	-3285
▁봤어	-3286
▁비난	-3287
▁비정	-3288
▁비참	-3289
▁빌려	-3290
▁사면	-3291
▁상상	-3292
▁새해	-3293
▁성별	-3294
▁성향	-3295
▁센스	-3296
▁솔로	-3297
▁수는	-3298
▁수면	-3299
▁순수	-3300
▁술이	-3301
▁시키	-3302
▁신뢰	-3303
▁신중	-3304
▁실내	-3305
▁심리	-3306
▁싸워	-3307
▁아플	-3308
▁악몽	-3309
▁애교	-3310
▁어이	-3311
▁에너	-3312
▁여우	-3313
▁연속	-3314
▁왤케	-3315
▁운전	-3316
▁웃을	-3317
▁웬수	-3318
▁은퇴	-3319
▁의심	-3320
▁의욕	-3321
▁이직	-3322
▁인턴	-3323
▁일만	-3324
▁입어	-3325
▁잇몸	-3326
▁있기	-3327
▁자괴	-3328
▁잘지	-3329
▁잤어	-3330
▁적금	-3331
▁정상	-3332
▁주기	-3333
▁지갑	-3334
▁지도	-3335
▁지진	-3336
▁착한	-3337
▁참견	-3338
▁찾는	-3339
▁천재	-3340
▁체육	-3341
▁쳐다	-3342
▁충격	-3343
▁치료	-3344
▁카드	-3345
▁큰일	-3346
▁통화	-3347
▁특별	-3348
▁하시	-3349
▁학생	-3350
▁한거	-3351
▁한숨	-3352
▁해봤	-3353
▁해외	-3354
▁허무	-3355
▁헛헛	-3356
▁후가	-3357
▁후에	-3358
가는데	-3359
개월이	-3360
개월째	-3361
겼는데	-3362
다는건	-3363
더라구	-3364
드리고	-3365
버렸네	-3366
봅시다	-3367
야할까	-3368
었네요	-3369
에게나	-3370
였는데	-3371
을텐데	-3372
이세요	-3373
점에서	-3374
하나봐	-3375
하라고	-3376
해야할	-3377
해하지	-3378
▁가벼운	-3379
▁가족이	-3380
▁강아지	-3381
▁같아서	-3382
▁걱정이	-3383
▁결혼할	-3384
▁고백할	-3385
▁그러고	-3386
▁그럼요	-3387
▁그리운	-3388
▁기숙사	-3389
▁기억이	-3390
▁기회를	-3391
▁끝났어	-3392
▁나만의	-3393
▁나쁘지	-3394
▁나아졌	-3395
▁나아질	-3396
▁나타날	-3397
▁남에게	-3398
▁누구든	-3399
▁눈치가	-3400
▁느끼는	-3401
▁늘어요	-3402
▁단단히	-3403
▁달콤한	-3404
▁당했어	-3405
▁대해서	-3406
▁돌아가	-3407
▁돌아올	-3408
▁두달이	-3409
▁들었어	-3410
▁따뜻할	-3411
▁마시면	-3412
▁만나도	-3413
▁만드는	-3414
▁만들고	-3415
▁많아서	-3416
▁맛나게	-3417
▁머리랑	-3418
▁머릿속	-3419
▁모든걸	-3420
▁모르게	-3421
▁뭐할까	-3422
▁불편해	-3423
▁사랑과	-3424
▁사랑도	-3425
▁사랑하	-3426
▁사야지	-3427
▁사이에	-3428
▁사정이	-3429
▁삼겹살	-3430
▁생기면	-3431
▁성공할	-3432
▁세상은	-3433
▁소화제	-3434
▁시작해	-3435
▁신나는	-3436
▁실수를	-3437
▁싶다고	-3438
▁썸인가	-3439
▁아까워	-3440
▁아니죠	-3441
▁아이돌	-3442
▁아침이	-3443
▁안되네	-3444
▁어떨까	-3445
▁없어도	-3446
▁여유가	-3447
▁여행도	-3448
▁연애로	-3449
▁영화관	-3450
▁오늘이	-3451
▁우연히	-3452
▁위해서	-3453
▁음식을	-3454
▁이루어	-3455
▁자격증	-3456
▁자신감	-3457
▁잘못된	-3458
▁잘못인	-3459
▁전화가	-3460
▁종교가	-3461
▁찾기를	-3462
▁청첩장	-3463
▁컨디션	-3464
▁하고싶	-3465
▁하는건	-3466
▁하늘을	-3467
▁하루도	-3468
▁하자고	-3469
▁현실의	-3470
▁혼자도	-3471
▁회사와	-3472
▁후회는	-3473
▁흐르고	-3474
렸나봐요	-3475
았습니다	-3476
하고싶어	-3477
하시군요	-3478
해야겠지	-3479
▁결혼해도	-3480
▁고백하는	-3481
▁고백하면	-3482
▁공부해서	-3483
▁관심사를	-3484
▁궁금해요	-3485
▁그렇다면	-3486
▁긍정적인	-3487
▁기다리지	-3488
▁까먹었다	-3489
▁놀러가고	-3490
▁느낌이야	-3491
▁데이트를	-3492
▁드릴게요	-3493
▁마셔야지	-3494
▁말이네요	-3495
▁말해볼까	-3496
▁목소리를	-3497
▁미세먼지	-3498
▁사람들은	-3499
▁생겼으면	-3500
▁세상에서	-3501
▁싫어하는	-3502
▁아니지만	-3503
▁알아보고	-3504
▁어디까지	-3505
▁오늘따라	-3506
▁왔습니다	-3507
▁우선순위	-3508
▁유지하는	-3509
▁의미부여	-3510
▁이번에는	-3511
▁잠수이별	-3512
▁좋아하나	-3513
▁좋았는데	-3514
▁중입니다	-3515
▁줘보세요	-3516
▁짝녀에게	-3517
▁추천해요	-3518
▁해야겠다	-3519
▁해야할지	-3520
▁행복해지	-3521
▁헤어지자	-3522
▁회원정보	-3523
▁관리하세요	-3524
▁괜찮아졌길	-3525
▁기다리는게	-3526
▁다르겠지요	-3527
▁말해주세요	-3528
▁먹어보세요	-3529
▁물어보는게	-3530
▁받아보세요	-3531
▁보내주세요	-3532
▁사랑이네요	-3533
▁생각만해도	-3534
▁생각했는데	-3535
▁소식이네요	-3536
▁아무렇지도	-3537
▁읽어보세요	-3538
▁있나봅니다	-3539
▁좋아하는거	-3540
▁챙겨드세요	-3541
▁취해보세요	-3542
▁사람인가봐요	-3543
▁사랑했나봐요	-3544
▁생각했나봐요	-3545
▁여자친구한테	-3546
▁좋아하나봐요	-3547
▁노력하겠습니다	-3548
▁거기까지인가봐요	-3549
▁검	-3550
▁꽤	-3551
▁끌	-3552
▁끓	-3553
▁낙	-3554
▁니	-3555
▁땅	-3556
▁땐	-3557
▁레	-3558
▁며	-3559
▁브	-3560
▁빈	-3561
▁색	-3562
▁쌩	-3563
▁앉	-3564
▁쟁	-3565
▁짠	-3566
▁쪼	-3567
▁칼	-3568
▁탄	-3569
▁탔	-3570
▁활	-3571
▁휘	-3572
▁흥	-3573
간다	-3574
같지	-3575
기력	-3576
길이	-3577
나나	-3578
났어	-3579
너무	-3580
년간	-3581
년을	-3582
담을	-3583
도를	-3584
되길	-3585
되지	-3586
드름	-3587
들지	-3588
라우	-3589
란게	-3590
랑이	-3591
렸을	-3592
료가	-3593
리러	-3594
만한	-3595
모습	-3596
복이	-3597
비가	-3598
셔야	-3599
소음	-3600
수있	-3601
순간	-3602
스피	-3603
시키	-3604
쓰는	-3605
양이	-3606
였을	-3607
우스	-3608
이래	-3609
인다	-3610
일차	-3611
자를	-3612
장에	-3613
적령	-3614
제가	-3615
종일	-3616
주도	-3617
지길	-3618
출발	-3619
침이	-3620
침표	-3621
콜릿	-3622
크닉	-3623
터가	-3624
토닥	-3625
트북	-3626
하철	-3627
호회	-3628
▁15	-3629
▁간사	-3630
▁강렬	-3631
▁거랑	-3632
▁거요	-3633
▁건조	-3634
▁검색	-3635
▁겨우	-3636
▁고칠	-3637
▁공개	-3638
▁그를	-3639
▁그저	-3640
▁기도	-3641
▁길어	-3642
▁깨닫	-3643
▁꿈은	-3644
▁끝도	-3645
▁끝에	-3646
▁끝인	-3647
▁나네	-3648
▁난방	-3649
▁남는	-3650
▁남지	-3651
▁냉정	-3652
▁너는	-3653
▁노는	-3654
▁놀죠	-3655
▁니가	-3656
▁단둘	-3657
▁달려	-3658
▁대리	-3659
▁덜할	-3660
▁덤덤	-3661
▁동성	-3662
▁든든	-3663
▁들이	-3664
▁때로	-3665
▁뛰어	-3666
▁마셨	-3667
▁막혀	-3668
▁말로	-3669
▁맛이	-3670
▁매주	-3671
▁멍청	-3672
▁못했	-3673
▁발목	-3674
▁버티	-3675
▁보게	-3676
▁봐서	-3677
▁부드	-3678
▁비싼	-3679
▁빠져	-3680
▁사겨	-3681
▁사내	-3682
▁살이	-3683
▁살지	-3684
▁상의	-3685
▁생리	-3686
▁서툴	-3687
▁섬유	-3688
▁성숙	-3689
▁세워	-3690
▁셀카	-3691
▁술만	-3692
▁신기	-3693
▁쓰지	-3694
▁아기	-3695
▁아깝	-3696
▁아쉽	-3697
▁알기	-3698
▁애를	-3699
▁약을	-3700
▁약이	-3701
▁어필	-3702
▁언니	-3703
▁오지	-3704
▁올해	-3705
▁와서	-3706
▁위기	-3707
▁유학	-3708
▁유효	-3709
▁의사	-3710
▁일년	-3711
▁입고	-3712
▁입지	-3713
▁있다	-3714
▁잡아	-3715
▁적게	-3716
▁전혀	-3717
▁정류	-3718
▁정의	-3719
▁제게	-3720
▁조건	-3721
▁종일	-3722
▁주식	-3723
▁줄까	-3724
▁줄어	-3725
▁즐겁	-3726
▁지울	-3727
▁지치	-3728
▁참지	-3729
▁책을	-3730
▁철벽	-3731
▁최근	-3732
▁축복	-3733
▁침대	-3734
▁코스	-3735
▁키가	-3736
▁택배	-3737
▁패턴	-3738
▁포근	-3739
▁풀렸	-3740
▁풀어	-3741
▁했나	-3742
▁호의	-3743
▁확신	-3744
▁회복	-3745
▁흔적	-3746
▁흘러	-3747
▁흥미	-3748
라우마	-3749
보아요	-3750
보여요	-3751
야하나	-3752
에서도	-3753
였으면	-3754
유증이	-3755
이예요	-3756
인데이	-3757
인인데	-3758
적이야	-3759
지네요	-3760
하다는	-3761
할거라	-3762
해야죠	-3763
했더니	-3764
했지만	-3765
▁가능한	-3766
▁가능해	-3767
▁가만히	-3768
▁같다고	-3769
▁것처럼	-3770
▁결정은	-3771
▁경험이	-3772
▁계획을	-3773
▁고마워	-3774
▁그녀와	-3775
▁그럴까	-3776
▁그럴만	-3777
▁그렇죠	-3778
▁그분이	-3779
▁기억을	-3780
▁끝나고	-3781
▁끝났네	-3782
▁남들이	-3783
▁내일도	-3784
▁노트북	-3785
▁느껴져	-3786
▁다음에	-3787
▁달달한	-3788
▁답장이	-3789
▁동료가	-3790
▁동호회	-3791
▁됐어요	-3792
▁되는게	-3793
▁될지도	-3794
▁뒤에서	-3795
▁떠나고	-3796
▁마음과	-3797
▁마침표	-3798
▁많으면	-3799
▁말라고	-3800
▁말하고	-3801
▁말해도	-3802
▁말해줘	-3803
▁맞는지	-3804
▁맞을까	-3805
▁멋져요	-3806
▁모든게	-3807
▁모른척	-3808
▁무기력	-3809
▁미련은	-3810
▁바라는	-3811
▁바라지	-3812
▁배우자	-3813
▁번호를	-3814
▁변하는	-3815
▁보는게	-3816
▁보여요	-3817
▁불공평	-3818
▁사는게	-3819
▁살아요	-3820
▁상담을	-3821
▁상대가	-3822
▁새출발	-3823
▁생각날	-3824
▁선물로	-3825
▁소리가	-3826
▁속상해	-3827
▁속에서	-3828
▁순간이	-3829
▁쉬어가	-3830
▁신경을	-3831
▁신경이	-3832
▁썸에서	-3833
▁아니고	-3834
▁아닐까	-3835
▁아름답	-3836
▁아빠가	-3837
▁아직은	-3838
▁아프지	-3839
▁아픔을	-3840
▁아픔의	-3841
▁앞두고	-3842
▁어렵네	-3843
▁없애는	-3844
▁여드름	-3845
▁여자는	-3846
▁여자와	-3847
▁여행가	-3848
▁연습이	-3849
▁영화보	-3850
▁오래된	-3851
▁우리가	-3852
▁우울해	-3853
▁운명이	-3854
▁이해해	-3855
▁인스타	-3856
▁일들이	-3857
▁일부터	-3858
▁일이죠	-3859
▁있을지	-3860
▁잊혀질	-3861
▁자세히	-3862
▁자체로	-3863
▁정도는	-3864
▁정리될	-3865
▁정말로	-3866
▁제주도	-3867
▁좋으시	-3868
▁중국어	-3869
▁증거를	-3870
▁지내는	-3871
▁지하철	-3872
▁차가워	-3873
▁처음에	-3874
▁초콜릿	-3875
▁출퇴근	-3876
▁친구도	-3877
▁키우고	-3878
▁태어났	-3879
▁피크닉	-3880
▁하네요	-3881
▁하려고	-3882
▁하루를	-3883
▁하지만	-3884
▁해야죠	-3885
▁해주고	-3886
▁했어요	-3887
▁확인해	-3888
▁환승은	-3889
▁힘내지	-3890
갈거예요	-3891
개월만에	-3892
이니까요	-3893
하니까요	-3894
하시네요	-3895
▁결혼적령	-3896
▁고백하고	-3897
▁그러게요	-3898
▁남자한테	-3899
▁노력하면	-3900
▁답답하네	-3901
▁당연하죠	-3902
▁될거예요	-3903
▁듯합니다	-3904
▁모르는게	-3905
▁무시하는	-3906
▁물어봐요	-3907
▁미친듯이	-3908
▁별로라고	-3909
▁봉사활동	-3910
▁비교하지	-3911
▁빠를수록	-3912
▁사람인데	-3913
▁사랑에는	-3914
▁사이에서	-3915
▁사회생활	-3916
▁상처받지	-3917
▁생각할까	-3918
▁생각해도	-3919
▁성공하길	-3920
▁시원하게	-3921
▁신혼여행	-3922
▁아니네요	-3923
▁안되겠지	-3924
▁안되는데	-3925
▁언제까지	-3926
▁엄마한테	-3927
▁여자들이	-3928
▁연락처를	-3929
▁연애하고	-3930
▁이별하고	-3931
▁이제라도	-3932
▁있겠네요	-3933
▁있었나요	-3934
▁잡으세요	-3935
▁전화하는	-3936
▁좋을까요	-3937
▁준비하고	-3938
▁지금보다	-3939
▁취미생활	-3940
▁친구라고	-3941
▁카페에서	-3942
▁트라우마	-3943
▁표현하는	-3944
▁필요했을	-3945
▁하나라도	-3946
▁하루에도	-3947
▁행복해질	-3948
▁헤아리지	-3949
▁헤어짐을	-3950
▁혼자만의	-3951
▁화장하는	-3952
▁후유증이	-3953
▁힘들지요	-3954
▁가능합니다	-3955
▁간접적이든	-3956
▁그랬나봐요	-3957
▁기분전환을	-3958
▁누구에게나	-3959
▁다음부터는	-3960
▁떠나보세요	-3961
▁만남이었길	-3962
▁말씀하세요	-3963
▁맞을거예요	-3964
▁받아들이기	-3965
▁밝혀보세요	-3966
▁버텨보세요	-3967
▁보여주세요	-3968
▁부담스러운	-3969
▁사람이라면	-3970
▁생각해봐요	-3971
▁시작하세요	-3972
▁않았나봐요	-3973
▁억지로라도	-3974
▁이야기해도	-3975
▁정해보세요	-3976
▁좋아했는데	-3977
▁주기적으로	-3978
▁직접적이든	-3979
▁참아보세요	-3980
▁축하합니다	-3981
▁풀어보세요	-3982
▁하지마세요	-3983
▁힘들어하지	-3984
▁기다려주세요	-3985
▁발렌타인데이	-3986
▁사람이니까요	-3987
▁위로봇입니다	-3988
▁필요하겠어요	-3989
▁결정이었을텐데	-3990
▁거기까지였나봐요	-3991
00	-3992
▁곰	-3993
▁곱	-3994
▁광	-3995
▁꾹	-3996
▁낚	-3997
▁낳	-3998
▁낼	-3999
▁닫	-4000
▁득	-4001
▁롱	-4002
▁묻	-4003
▁밖	-4004
▁벽	-4005
▁쉴	-4006
▁슈	-4007
▁씨	-4008
▁액	-4009
▁엉	-4010
▁옳	-4011
▁임	-4012
▁찜	-4013
▁찼	-4014
▁황	-4015
▁흑	-4016
거같	-4017
거지	-4018
건데	-4019
겠음	-4020
겨워	-4021
곰히	-4022
관계	-4023
관리	-4024
교통	-4025
근차	-4026
기업	-4027
끄러	-4028
끼리	-4029
나네	-4030
다른	-4031
대체	-4032
대회	-4033
도는	-4034
돌아	-4035
돼서	-4036
듯한	-4037
라서	-4038
로리	-4039
만나	-4040
매일	-4041
면증	-4042
바이	-4043
바퀴	-4044
벤트	-4045
상담	-4046
선물	-4047
세포	-4048
수가	-4049
수를	-4050
수증	-4051
심을	-4052
였던	-4053
와서	-4054
와요	-4055
이크	-4056
인상	-4057
작정	-4058
잖아	-4059
저리	-4060
절한	-4061
젯밤	-4062
졌네	-4063
조심	-4064
지런	-4065
지죠	-4066
질방	-4067
짐에	-4068
청소	-4069
카드	-4070
터디	-4071
트업	-4072
트콘	-4073
표현	-4074
하자	-4075
학기	-4076
한잔	-4077
해를	-4078
했길	-4079
행기	-4080
형이	-4081
화가	-4082
히려	-4083
▁가늠	-4084
▁가득	-4085
▁가려	-4086
▁가을	-4087
▁갈때	-4088
▁감당	-4089
▁감히	-4090
▁갔어	-4091
▁강습	-4092
▁갖지	-4093
▁거둘	-4094
▁것들	-4095
▁고고	-4096
▁고기	-4097
▁고장	-4098
▁고치	-4099
▁공감	-4100
▁관련	-4101
▁귀를	-4102
▁금연	-4103
▁기프	-4104
▁깊게	-4105
▁깜빡	-4106
▁꾸며	-4107
▁끝날	-4108
▁나누	-4109
▁나빠	-4110
▁낭비	-4111
▁넘어	-4112
▁놀다	-4113
▁누굴	-4114
▁눈썹	-4115
▁느낀	-4116
▁늦어	-4117
▁단순	-4118
▁단호	-4119
▁대답	-4120
▁대우	-4121
▁대중	-4122
▁대체	-4123
▁도망	-4124
▁동감	-4125
▁득템	-4126
▁들리	-4127
▁들을	-4128
▁때려	-4129
▁떠났	-4130
▁로봇	-4131
▁막차	-4132
▁많네	-4133
▁많다	-4134
▁말아	-4135
▁말한	-4136
▁망가	-4137
▁맞지	-4138
▁맞춤	-4139
▁매번	-4140
▁먹지	-4141
▁며칠	-4142
▁몇일	-4143
▁모으	-4144
▁무릎	-4145
▁뭐하	-4146
▁바디	-4147
▁밤에	-4148
▁베풀	-4149
▁변해	-4150
▁보름	-4151
▁부부	-4152
▁분노	-4153
▁분들	-4154
▁불타	-4155
▁빠른	-4156
▁빼고	-4157
▁살면	-4158
▁삶의	-4159
▁서류	-4160
▁성덕	-4161
▁성적	-4162
▁성형	-4163
▁소액	-4164
▁소유	-4165
▁소주	-4166
▁속은	-4167
▁수염	-4168
▁수영	-4169
▁수학	-4170
▁쉬어	-4171
▁쉽진	-4172
▁슈퍼	-4173
▁스테	-4174
▁스팸	-4175
▁슬픔	-4176
▁실례	-4177
▁싸움	-4178
▁쌩얼	-4179
▁썸만	-4180
▁썸일	-4181
▁썼어	-4182
▁씻고	-4183
▁아님	-4184
▁아련	-4185
▁아물	-4186
▁아주	-4187
▁안가	-4188
▁안에	-4189
▁알뜰	-4190
▁애석	-4191
▁애틋	-4192
▁어둠	-4193
▁어떠	-4194
▁연휴	-4195
▁예전	-4196
▁오락	-4197
▁오토	-4198
▁온다	-4199
▁올까	-4200
▁옷이	-4201
▁왕따	-4202
▁요구	-4203
▁요금	-4204
▁욕심	-4205
▁우린	-4206
▁운을	-4207
▁웃어	-4208
▁육아	-4209
▁음식	-4210
▁의견	-4211
▁이것	-4212
▁이뻐	-4213
▁이쁜	-4214
▁인공	-4215
▁일단	-4216
▁일에	-4217
▁잃어	-4218
▁입이	-4219
▁자는	-4220
▁자면	-4221
▁자취	-4222
▁잠재	-4223
▁잡는	-4224
▁전세	-4225
▁전역	-4226
▁점은	-4227
▁점이	-4228
▁조용	-4229
▁조차	-4230
▁조카	-4231
▁좋게	-4232
▁좋고	-4233
▁주름	-4234
▁중고	-4235
▁증오	-4236
▁지냈	-4237
▁지키	-4238
▁진지	-4239
▁짧지	-4240
▁찌질	-4241
▁차갑	-4242
▁차례	-4243
▁참아	-4244
▁창업	-4245
▁책임	-4246
▁초기	-4247
▁추석	-4248
▁추운	-4249
▁치고	-4250
▁치맥	-4251
▁치열	-4252
▁치유	-4253
▁키워	-4254
▁타기	-4255
▁타던	-4256
▁탈출	-4257
▁탈퇴	-4258
▁티가	-4259
▁티를	-4260
▁평가	-4261
▁평온	-4262
▁표시	-4263
▁푸는	-4264
▁필름	-4265
▁하든	-4266
▁학점	-4267
▁한강	-4268
▁합격	-4269
▁해낼	-4270
▁했다	-4271
▁허리	-4272
▁형편	-4273
▁혼란	-4274
▁혼술	-4275
▁화내	-4276
▁희생	-4277
▁힘껏	-4278
것같아	-4279
겠는데	-4280
교통을	-4281
근차근	-4282
년만에	-4283
년이란	-4284
되는데	-4285
들에게	-4286
방법을	-4287
봐야지	-4288
생활이	-4289
셨군요	-4290
스러울	-4291
스크림	-4292
스피싱	-4293
시간이	-4294
심으로	-4295
었나봐	-4296
영수증	-4297
우니까	-4298
으려면	-4299
이겠죠	-4300
인건가	-4301
적이고	-4302
적이죠	-4303
졌는데	-4304
지말고	-4305
하더니	-4306
하려는	-4307
할거야	-4308
할까봐	-4309
해주면	-4310
했나봐	-4311
▁가사가	-4312
▁가짐에	-4313
▁각자의	-4314
▁감정은	-4315
▁갔는데	-4316
▁거울을	-4317
▁걱정은	-4318
▁건가요	-4319
▁건강이	-4320
▁걸까요	-4321
▁것들이	-4322
▁견디고	-4323
▁결정할	-4324
▁경우가	-4325
▁경우도	-4326
▁계절이	-4327
▁고맙다	-4328
▁곰곰히	-4329
▁괴로워	-4330
▁괴롭게	-4331
▁군침이	-4332
▁궁금할	-4333
▁권태기	-4334
▁귀엽게	-4335
▁그러는	-4336
▁그분의	-4337
▁기간이	-4338
▁기대가	-4339
▁기분은	-4340
▁길에서	-4341
▁나가기	-4342
▁낫겠지	-4343
▁너무나	-4344
▁넘었네	-4345
▁노래를	-4346
▁놀아줘	-4347
▁누구도	-4348
▁능력을	-4349
▁당연히	-4350
▁대화가	-4351
▁더러워	-4352
▁도네요	-4353
▁도대체	-4354
▁도와주	-4355
▁도전해	-4356
▁되겠지	-4357
▁두근거	-4358
▁두번째	-4359
▁드시고	-4360
▁듣는데	-4361
▁떠보는	-4362
▁뜻대로	-4363
▁마주쳐	-4364
▁마주치	-4365
▁만나길	-4366
▁만나러	-4367
▁만남과	-4368
▁만남이	-4369
▁말투가	-4370
▁맛있을	-4371
▁망했어	-4372
▁머리는	-4373
▁멋지게	-4374
▁모아서	-4375
▁못하면	-4376
▁무거워	-4377
▁무엇을	-4378
▁무작정	-4379
▁문제는	-4380
▁문제로	-4381
▁미래에	-4382
▁바쁘면	-4383
▁방법을	-4384
▁배우면	-4385
▁버려야	-4386
▁변하지	-4387
▁별로야	-4388
▁보면서	-4389
▁보아요	-4390
▁보이는	-4391
▁부딪혔	-4392
▁부지런	-4393
▁불면증	-4394
▁비행기	-4395
▁사귀면	-4396
▁사람만	-4397
▁살면서	-4398
▁상처는	-4399
▁새학기	-4400
▁생리통	-4401
▁서로가	-4402
▁선배가	-4403
▁성공을	-4404
▁소식이	-4405
▁소심해	-4406
▁술먹고	-4407
▁쉬어야	-4408
▁스터디	-4409
▁시간에	-4410
▁시간표	-4411
▁실수할	-4412
▁싫다고	-4413
▁심경의	-4414
▁싸우면	-4415
▁아닌거	-4416
▁아프고	-4417
▁아픔이	-4418
▁안경테	-4419
▁안녕히	-4420
▁않지만	-4421
▁알았어	-4422
▁약속을	-4423
▁양해를	-4424
▁얘기를	-4425
▁어디로	-4426
▁어젯밤	-4427
▁언제든	-4428
▁얼굴이	-4429
▁없겠지	-4430
▁없는게	-4431
▁없지만	-4432
▁영원한	-4433
▁오히려	-4434
▁월급이	-4435
▁월요일	-4436
▁의미가	-4437
▁의미를	-4438
▁의외로	-4439
▁의욕이	-4440
▁이벤트	-4441
▁이해할	-4442
▁인상이	-4443
▁일어날	-4444
▁있는거	-4445
▁있어야	-4446
▁자괴감	-4447
▁자기도	-4448
▁자신과	-4449
▁자존감	-4450
▁잘해야	-4451
▁재회를	-4452
▁접어두	-4453
▁정규직	-4454
▁좋아질	-4455
▁준비중	-4456
▁중요할	-4457
▁지겨워	-4458
▁지나간	-4459
▁진심이	-4460
▁집중이	-4461
▁집착해	-4462
▁짜장면	-4463
▁찜질방	-4464
▁차이가	-4465
▁찾아오	-4466
▁첫인상	-4467
▁최근에	-4468
▁최대한	-4469
▁최선을	-4470
▁추억은	-4471
▁치과에	-4472
▁커피향	-4473
▁타다가	-4474
▁태어나	-4475
▁택시비	-4476
▁터놓고	-4477
▁퇴근길	-4478
▁특별한	-4479
▁파먹기	-4480
▁피부가	-4481
▁하거나	-4482
▁하루가	-4483
▁하루에	-4484
▁학원을	-4485
▁행동이	-4486
▁화이트	-4487
▁회사에	-4488
▁휴가가	-4489
▁휴식을	-4490
▁흥미를	-4491
▁힘든데	-4492
▁힘들고	-4493
되겠네요	-4494
버리세요	-4495
야하는데	-4496
었겠네요	-4497
었습니다	-4498
왔습니다	-4499
의하세요	-4500
▁가능할까	-4501
▁고민하게	-4502
▁고쳐쓰는	-4503
▁공부하기	-4504
▁공허함이	-4505
▁괜찮다면	-4506
▁괜찮지만	-4507
▁그럴지도	-4508
▁그만하고	-4509
▁기프트콘	-4510
▁깨끗하게	-4511
▁끝났으면	-4512
▁나을지도	-4513
▁나한테만	-4514
▁남사친이	-4515
▁노력하고	-4516
▁다가가는	-4517
▁다양하게	-4518
▁당신에게	-4519
▁돌아가고	-4520
▁드라이브	-4521
▁만들려고	-4522
▁말해봐요	-4523
▁맛있어요	-4524
▁매일매일	-4525
▁먹었는데	-4526
▁물어보고	-4527
▁받아보는	-4528
▁부드럽게	-4529
▁비밀번호	-4530
▁사귀어도	-4531
▁사랑받고	-4532
▁사랑하기	-4533
▁사보세요	-4534
▁사이인데	-4535
▁상대방도	-4536
▁생각나고	-4537
▁선생님이	-4538
▁세상에는	-4539
▁센스있는	-4540
▁셀프웨딩	-4541
▁소개시켜	-4542
▁스타트업	-4543
▁시작해도	-4544
▁신경쓰는	-4545
▁실수하지	-4546
▁싫어하지	-4547
▁싸우면서	-4548
▁아니라는	-4549
▁않겠어요	-4550
▁애정표현	-4551
▁얼마든지	-4552
▁연락해서	-4553
▁오락가락	-4554
▁오토바이	-4555
▁운동으로	-4556
▁응원해요	-4557
▁의미있는	-4558
▁이기적인	-4559
▁이야기해	-4560
▁익숙해질	-4561
▁인정받고	-4562
▁잊는다는	-4563
▁전남친이	-4564
▁좋습니다	-4565
▁좋아하지	-4566
▁지나갔길	-4567
▁진정으로	-4568
▁집안일을	-4569
▁집착하는	-4570
▁차근차근	-4571
▁차리세요	-4572
▁차분하게	-4573
▁처음부터	-4574
▁처음에는	-4575
▁첫사랑이	-4576
▁체육대회	-4577
▁추억으로	-4578
▁추천해줘	-4579
▁포기하는	-4580
▁하루종일	-4581
▁학교에서	-4582
▁행복하길	-4583
▁행복할까	-4584
▁혼자서도	-4585
▁회사에는	-4586
▁힘들지도	-4587
드려보세요	-4588
했나봅니다	-4589
▁꾸며보세요	-4590
▁달라지는게	-4591
▁대중교통을	-4592
▁되었나봐요	-4593
▁들여보세요	-4594
▁마음이라도	-4595
▁많은가봐요	-4596
▁못했나봐요	-4597
▁벗어나세요	-4598
▁보이스피싱	-4599
▁붙여보세요	-4600
▁빌려보세요	-4601
▁사랑한다는	-4602
▁사랑할수록	-4603
▁상관없어요	-4604
▁선택일거라	-4605
▁스트레칭을	-4606
▁습관이네요	-4607
▁신고하세요	-4608
▁심하겠네요	-4609
▁심한가봐요	-4610
▁아니랍니다	-4611
▁아닌가봐요	-4612
▁아이스크림	-4613
▁안녕하세요	-4614
▁안타깝네요	-4615
▁않을거예요	-4616
▁올려달라고	-4617
▁웃어보세요	-4618
▁재미있어요	-4619
▁정류장에서	-4620
▁좋아한다고	-4621
▁준비하세요	-4622
▁줄여보세요	-4623
▁집중하세요	-4624
▁청해보세요	-4625
▁추천합니다	-4626
▁충전하세요	-4627
▁헤어지는게	-4628
▁헤어지세요	-4629
▁현금영수증	-4630
▁화이트데이	-4631
▁힘들거예요	-4632
▁걱정되겠네요	-4633
▁남자친구한테	-4634
▁시간이겠네요	-4635
▁연습해보세요	-4636
▁예민한가봐요	-4637
▁이별했습니다	-4638
▁이용해주세요	-4639
▁정리해보세요	-4640
▁좋아할거예요	-4641
▁피곤한가봐요	-4642
▁필요한가봐요	-4643
▁힘드신가봐요	-4644
▁두근거리겠어요	-4645
▁부지런하시네요	-4646
▁심호흡해보세요	-4647
▁긁	-4648
▁끼	-4649
▁뉴	-4650
▁덕	-4651
▁떡	-4652
▁똥	-4653
▁랜	-4654
▁밑	-4655
▁밟	-4656
▁북	-4657
▁빚	-4658
▁빵	-4659
▁삐	-4660
▁승	-4661
▁씌	-4662
▁엮	-4663
▁옥	-4664
▁왠	-4665
▁쪽	-4666
▁쫌	-4667
▁층	-4668
▁켜	-4669
▁쿨	-4670
▁탓	-4671
▁팀	-4672
▁퍼	-4673
▁헌	-4674
▁훈	-4675
갔네	-4676
걸요	-4677
게임	-4678
고가	-4679
김에	-4680
나가	-4681
난거	-4682
난히	-4683
냐구	-4684
노래	-4685
능에	-4686
다리	-4687
달콩	-4688
담화	-4689
동산	-4690
되기	-4691
두절	-4692
드가	-4693
드시	-4694
레스	-4695
력은	-4696
련만	-4697
롭게	-4698
르네	-4699
모가	-4700
무게	-4701
문이	-4702
버려	-4703
버리	-4704
버시	-4705
봤어	-4706
분간	-4707
사는	-4708
사에	-4709
살이	-4710
서야	-4711
셨나	-4712
수저	-4713
숭숭	-4714
식에	-4715
심한	-4716
쏟아	-4717
았네	-4718
았다	-4719
연제	-4720
였나	-4721
오를	-4722
와의	-4723
왔네	-4724
우는	-4725
우니	-4726
웠을	-4727
으려	-4728
으며	-4729
은거	-4730
을때	-4731
의금	-4732
있나	-4733
있음	-4734
있지	-4735
저분	-4736
정리	-4737
조절	-4738
조차	-4739
주째	-4740
줘야	-4741
증을	-4742
진다	-4743
질이	-4744
참고	-4745
카락	-4746
트가	-4747
플라	-4748
하실	-4749
한번	-4750
히네	-4751
힌다	-4752
▁20	-4753
▁가라	-4754
▁가볍	-4755
▁가스	-4756
▁간식	-4757
▁감수	-4758
▁감싸	-4759
▁갚아	-4760
▁개념	-4761
▁거는	-4762
▁걸려	-4763
▁걸린	-4764
▁것만	-4765
▁격려	-4766
▁경제	-4767
▁곳을	-4768
▁괜한	-4769
▁괴로	-4770
▁구분	-4771
▁구속	-4772
▁그가	-4773
▁기댈	-4774
▁길게	-4775
▁길은	-4776
▁김치	-4777
▁꺼내	-4778
▁꼼꼼	-4779
▁꿈같	-4780
▁끄는	-4781
▁끓여	-4782
▁끝낼	-4783
▁끝일	-4784
▁나날	-4785
▁나약	-4786
▁낚시	-4787
▁남길	-4788
▁낭만	-4789
▁내게	-4790
▁내기	-4791
▁내내	-4792
▁높아	-4793
▁눈은	-4794
▁능력	-4795
▁늦는	-4796
▁늦잠	-4797
▁다짐	-4798
▁다툼	-4799
▁단톡	-4800
▁담긴	-4801
▁답은	-4802
▁더욱	-4803
▁돈은	-4804
▁되기	-4805
▁듣기	-4806
▁들까	-4807
▁들려	-4808
▁들면	-4809
▁등산	-4810
▁등을	-4811
▁떨쳐	-4812
▁랜선	-4813
▁리폼	-4814
▁만에	-4815
▁맘을	-4816
▁맞나	-4817
▁먹으	-4818
▁먼지	-4819
▁면허	-4820
▁명품	-4821
▁모를	-4822
▁모쏠	-4823
▁모임	-4824
▁목이	-4825
▁몸에	-4826
▁무관	-4827
▁무의	-4828
▁무한	-4829
▁물건	-4830
▁뭐임	-4831
▁미용	-4832
▁미칠	-4833
▁미화	-4834
▁바늘	-4835
▁바지	-4836
▁반갑	-4837
▁받기	-4838
▁방문	-4839
▁배울	-4840
▁버리	-4841
▁번씩	-4842
▁벌고	-4843
▁벽에	-4844
▁변한	-4845
▁보단	-4846
▁보며	-4847
▁복전	-4848
▁봄은	-4849
▁부디	-4850
▁부여	-4851
▁불금	-4852
▁비하	-4853
▁빠졌	-4854
▁빨래	-4855
▁뽑기	-4856
▁사냐	-4857
▁사탕	-4858
▁살찐	-4859
▁상메	-4860
▁서툰	-4861
▁설렜	-4862
▁설명	-4863
▁세월	-4864
▁손에	-4865
▁손톱	-4866
▁손해	-4867
▁수상	-4868
▁수업	-4869
▁수준	-4870
▁술은	-4871
▁숨막	-4872
▁슬쩍	-4873
▁시골	-4874
▁시도	-4875
▁식단	-4876
▁신발	-4877
▁심어	-4878
▁썸인	-4879
▁쓸쓸	-4880
▁씁쓸	-4881
▁아마	-4882
▁아팠	-4883
▁안주	-4884
▁알지	-4885
▁알콩	-4886
▁애기	-4887
▁양말	-4888
▁어깨	-4889
▁어른	-4890
▁어리	-4891
▁염탐	-4892
▁예감	-4893
▁올랐	-4894
▁옷을	-4895
▁와닿	-4896
▁왜그	-4897
▁요리	-4898
▁웃겨	-4899
▁유행	-4900
▁은행	-4901
▁이모	-4902
▁이틀	-4903
▁일반	-4904
▁읽씹	-4905
▁입에	-4906
▁있음	-4907
▁자도	-4908
▁작아	-4909
▁잔인	-4910
▁잘살	-4911
▁잘자	-4912
▁쟁취	-4913
▁적어	-4914
▁적이	-4915
▁전기	-4916
▁전해	-4917
▁제안	-4918
▁좋으	-4919
▁주차	-4920
▁주택	-4921
▁지낼	-4922
▁지루	-4923
▁지옥	-4924
▁진행	-4925
▁질질	-4926
▁짐을	-4927
▁집앞	-4928
▁짧게	-4929
▁찍고	-4930
▁착잡	-4931
▁참석	-4932
▁참을	-4933
▁처럼	-4934
▁첫눈	-4935
▁추스	-4936
▁층간	-4937
▁치매	-4938
▁치워	-4939
▁컴퓨	-4940
▁코가	-4941
▁타다	-4942
▁털어	-4943
▁특징	-4944
▁틀린	-4945
▁티내	-4946
▁편의	-4947
▁포장	-4948
▁표정	-4949
▁피자	-4950
▁한가	-4951
▁한계	-4952
▁한국	-4953
▁한창	-4954
▁한켠	-4955
▁할줄	-4956
▁해줄	-4957
▁호칭	-4958
▁흑역	-4959
거겠죠	-4960
겠다고	-4961
끄러워	-4962
납니다	-4963
냈어요	-4964
년연애	-4965
느냐에	-4966
데이트	-4967
라는게	-4968
릅니다	-4969
받았어	-4970
보다는	-4971
생인데	-4972
셔야죠	-4973
식하는	-4974
신가요	-4975
았으면	-4976
었나요	-4977
유연제	-4978
이라서	-4979
인걸까	-4980
인데요	-4981
정적인	-4982
지세요	-4983
집니다	-4984
터리가	-4985
테리어	-4986
하겠지	-4987
한건가	-4988
해졌어	-4989
해주지	-4990
했네요	-4991
▁가까운	-4992
▁강렬한	-4993
▁거라고	-4994
▁거절의	-4995
▁걱정할	-4996
▁것들을	-4997
▁게임을	-4998
▁고마운	-4999
▁고백은	-5000
▁고치고	-5001
▁공부할	-5002
▁그러게	-5003
▁그리울	-5004
▁그리움	-5005
▁긁었어	-5006
▁금수저	-5007
▁기다렸	-5008
▁기다림	-5009
▁기대를	-5010
▁기본이	-5011
▁기억의	-5012
▁끝내고	-5013
▁끝인가	-5014
▁나가야	-5015
▁나갔어	-5016
▁남자도	-5017
▁너한테	-5018
▁누구랑	-5019
▁눈에서	-5020
▁다가오	-5021
▁다르죠	-5022
▁단둘이	-5023
▁달려있	-5024
▁당분간	-5025
▁당연한	-5026
▁대화로	-5027
▁되는거	-5028
▁뒤숭숭	-5029
▁뒤통수	-5030
▁뒷담화	-5031
▁드리고	-5032
▁드시면	-5033
▁들어도	-5034
▁들어서	-5035
▁들어올	-5036
▁들어줄	-5037
▁들으면	-5038
▁때문일	-5039
▁때예요	-5040
▁똑같아	-5041
▁마셔도	-5042
▁마실까	-5043
▁마음만	-5044
▁만나요	-5045
▁만나자	-5046
▁만남에	-5047
▁말했어	-5048
▁망했다	-5049
▁맞는거	-5050
▁맞아요	-5051
▁맞춤법	-5052
▁매력이	-5053
▁먹었어	-5054
▁먹자고	-5055
▁먼지가	-5056
▁멀어진	-5057
▁목소리	-5058
▁몸무게	-5059
▁못참고	-5060
▁못해서	-5061
▁못했던	-5062
▁물리적	-5063
▁뭐하는	-5064
▁미끄러	-5065
▁미련도	-5066
▁믿음을	-5067
▁바꿀까	-5068
▁바뀌게	-5069
▁바르고	-5070
▁바빠도	-5071
▁바빠서	-5072
▁밖에서	-5073
▁반응이	-5074
▁받아야	-5075
▁배고프	-5076
▁버텨요	-5077
▁베터리	-5078
▁보냈어	-5079
▁보자고	-5080
▁볼게요	-5081
▁봤는데	-5082
▁부탁드	-5083
▁빌어요	-5084
▁빠지는	-5085
▁뻔했어	-5086
▁사겨도	-5087
▁사귀던	-5088
▁사라질	-5089
▁살아가	-5090
▁상사가	-5091
▁상처도	-5092
▁서운해	-5093
▁서툴러	-5094
▁선에서	-5095
▁선택할	-5096
▁선톡을	-5097
▁세상이	-5098
▁소원을	-5099
▁속도를	-5100
▁슬프게	-5101
▁습관이	-5102
▁시계는	-5103
▁신경써	-5104
▁싫어도	-5105
▁심장이	-5106
▁싶다는	-5107
▁싸우는	-5108
▁아무말	-5109
▁아픔은	-5110
▁안하지	-5111
▁않는게	-5112
▁어디든	-5113
▁어려울	-5114
▁어렵죠	-5115
▁어렸을	-5116
▁어리게	-5117
▁어제와	-5118
▁어쩔수	-5119
▁없는거	-5120
▁여자도	-5121
▁여행은	-5122
▁연락오	-5123
▁연락할	-5124
▁연애의	-5125
▁연인은	-5126
▁옆에서	-5127
▁예민한	-5128
▁오빠가	-5129
▁요즘은	-5130
▁우리집	-5131
▁유난히	-5132
▁유부남	-5133
▁이기적	-5134
▁이름이	-5135
▁인연은	-5136
▁입어도	-5137
▁있었을	-5138
▁잘못을	-5139
▁잘못이	-5140
▁재밌는	-5141
▁재밌다	-5142
▁재밌어	-5143
▁재회는	-5144
▁정도로	-5145
▁존재를	-5146
▁좋을지	-5147
▁좋지요	-5148
▁주면서	-5149
▁주제를	-5150
▁줄어들	-5151
▁지나가	-5152
▁지나면	-5153
▁지내길	-5154
▁지르고	-5155
▁지우고	-5156
▁지저분	-5157
▁짜증날	-5158
▁차갑게	-5159
▁차별해	-5160
▁차이는	-5161
▁찾아온	-5162
▁추억에	-5163
▁축의금	-5164
▁친구네	-5165
▁친구는	-5166
▁친구와	-5167
▁친해지	-5168
▁친해질	-5169
▁카톡을	-5170
▁카톡이	-5171
▁편하고	-5172
▁평소에	-5173
▁프라이	-5174
▁프로필	-5175
▁피해를	-5176
▁하기도	-5177
▁하는지	-5178
▁하다가	-5179
▁하우스	-5180
▁한다는	-5181
▁한숨만	-5182
▁함께한	-5183
▁함께할	-5184
▁함부로	-5185
▁해보고	-5186
▁해야돼	-5187
▁해야할	-5188
▁행운을	-5189
▁현실과	-5190
▁혼자인	-5191
▁화장품	-5192
▁후회를	-5193
▁휴가를	-5194
▁힘든거	-5195
러보세요	-5196
뿐이에요	-5197
셨겠어요	-5198
시겠네요	-5199
지겠네요	-5200
테니까요	-5201
해야겠다	-5202
해야하는	-5203
해지세요	-5204
▁가능하면	-5205
▁가야겠죠	-5206
▁가치관이	-5207
▁거르세요	-5208
▁것입니다	-5209
▁결정이었	-5210
▁관리하는	-5211
▁권태기가	-5212
▁그대로의	-5213
▁기대하지	-5214
▁기억에서	-5215
▁나가볼까	-5216
▁나아졌길	-5217
▁낭비하지	-5218
▁놀이동산	-5219
▁달라진게	-5220
▁대화하는	-5221
▁도전하는	-5222
▁두려움을	-5223
▁두셨네요	-5224
▁들어왔어	-5225
▁떠오르는	-5226
▁마음정리	-5227
▁마주치는	-5228
▁만나는데	-5229
▁만들어서	-5230
▁맞추세요	-5231
▁머리카락	-5232
▁먹으면서	-5233
▁모르겠네	-5234
▁못하는게	-5235
▁물어보면	-5236
▁미워하지	-5237
▁미치겠네	-5238
▁미치겠어	-5239
▁믿으세요	-5240
▁받아들일	-5241
▁보고싶네	-5242
▁보이네요	-5243
▁비난하지	-5244
▁사랑해요	-5245
▁살다보면	-5246
▁상대방에	-5247
▁생각으로	-5248
▁생각해서	-5249
▁생겼네요	-5250
▁생일이네	-5251
▁서류에서	-5252
▁선택이길	-5253
▁성공하고	-5254
▁수학여행	-5255
▁시작이죠	-5256
▁시작하기	-5257
▁신경쓰여	-5258
▁신중하게	-5259
▁심호흡을	-5260
▁쓰레기야	-5261
▁아는데도	-5262
▁아니었을	-5263
▁아닌가요	-5264
▁알콩달콩	-5265
▁어떻게든	-5266
▁어떻게해	-5267
▁언젠가는	-5268
▁없겠지요	-5269
▁여사친이	-5270
▁연락두절	-5271
▁연애하는	-5272
▁연애하면	-5273
▁연인으로	-5274
▁오늘부터	-5275
▁왔나봐요	-5276
▁운명적인	-5277
▁이별이란	-5278
▁이별준비	-5279
▁이상형은	-5280
▁이상형이	-5281
▁이어나가	-5282
▁인생이죠	-5283
▁인정하고	-5284
▁일어나는	-5285
▁일어나서	-5286
▁있었는데	-5287
▁있으니까	-5288
▁있을게요	-5289
▁잊으려고	-5290
▁잊혀지지	-5291
▁자신으로	-5292
▁자유로워	-5293
▁자존감을	-5294
▁잘하는게	-5295
▁잘해주는	-5296
▁재미없어	-5297
▁재미있게	-5298
▁적응해야	-5299
▁정리하고	-5300
▁정확하게	-5301
▁좋았으면	-5302
▁좋으련만	-5303
▁주변에서	-5304
▁주식으로	-5305
▁중요한데	-5306
▁즐기면서	-5307
▁짝남에게	-5308
▁짝사랑을	-5309
▁층간소음	-5310
▁카톡으로	-5311
▁콩깍지가	-5312
▁퇴근하고	-5313
▁편하겠죠	-5314
▁필요한게	-5315
▁한달하고	-5316
▁해외여행	-5317
▁헤어지기	-5318
▁헤어지는	-5319
▁헤어짐이	-5320
▁후폭풍은	-5321
▁후회하기	-5322
▁후회해도	-5323
▁힘들었죠	-5324
담해보세요	-5325
었으니까요	-5326
하신가봐요	-5327
▁가능하겠죠	-5328
▁걱정된다고	-5329
▁걸리겠지만	-5330
▁결혼하는데	-5331
▁과정이에요	-5332
▁구해보세요	-5333
▁기원합니다	-5334
▁남았나봐요	-5335
▁남자애한테	-5336
▁남자친구를	-5337
▁대해보세요	-5338
▁두려워하지	-5339
▁들어주세요	-5340
▁맞춰보세요	-5341
▁맡겨보세요	-5342
▁먹어야겠다	-5343
▁미세먼지가	-5344
▁바꿔보세요	-5345
▁사과하세요	-5346
▁삭제하세요	-5347
▁상대방에게	-5348
▁상황이네요	-5349
▁섬유유연제	-5350
▁순간이네요	-5351
▁순간이었을	-5352
▁아름다워요	-5353
▁애매하네요	-5354
▁없을거예요	-5355
▁여자친구를	-5356
▁연락해볼까	-5357
▁연락했는데	-5358
▁연애하는데	-5359
▁외국인인데	-5360
▁이겨내세요	-5361
▁잃어버렸어	-5362
▁잊혀지기도	-5363
▁잘해주세요	-5364
▁좋아한다는	-5365
▁좋아했으면	-5366
▁좋을텐데요	-5367
▁큰일이네요	-5368
▁프라이버시	-5369
▁하고싶었던	-5370
▁힘든가봐요	-5371
이었나봅니다	-5372
▁남자친구에게	-5373
▁당황했겠어요	-5374
▁마음인가봐요	-5375
▁마주쳐보세요	-5376
▁미치겠습니다	-5377
▁어필해보세요	-5378
▁인정해주세요	-5379
▁있으신가봐요	-5380
▁전화해보세요	-5381
▁좋아해줬으면	-5382
▁필요하다면요	-5383
▁부담스러워하지	-5384
as	-5385
▁객	-5386
▁갠	-5387
▁겪	-5388
▁국	-5389
▁굳	-5390
▁굴	-5391
▁꼰	-5392
▁꽉	-5393
▁둔	-5394
▁뒹	-5395
▁뚫	-5396
▁라	-5397
▁렌	-5398
▁맴	-5399
▁맺	-5400
▁멘	-5401
▁몫	-5402
▁민	-5403
▁밉	-5404
▁뱃	-5405
▁벅	-5406
▁뻑	-5407
▁샌	-5408
▁씹	-5409
▁엇	-5410
▁엠	-5411
▁웹	-5412
▁윗	-5413
▁좌	-5414
▁쫄	-5415
▁찢	-5416
▁컸	-5417
▁콕	-5418
▁킁	-5419
▁탁	-5420
▁팍	-5421
▁품	-5422
▁핫	-5423
▁햇	-5424
▁험	-5425
▁훔	-5426
가가	-5427
가기	-5428
가능	-5429
가의	-5430
감당	-5431
강에	-5432
같애	-5433
걸음	-5434
게되	-5435
겠대	-5436
고있	-5437
공원	-5438
구경	-5439
구를	-5440
그만	-5441
극히	-5442
기에	-5443
기지	-5444
긴다	-5445
길만	-5446
꺼야	-5447
꼬박	-5448
났네	-5449
네여	-5450
달이	-5451
대는	-5452
독한	-5453
드네	-5454
드위	-5455
듬어	-5456
라네	-5457
라니	-5458
랬다	-5459
런지	-5460
렀어	-5461
력서	-5462
력에	-5463
로그	-5464
르기	-5465
르지	-5466
름이	-5467
리죠	-5468
리필	-5469
린라	-5470
림을	-5471
마요	-5472
마자	-5473
만해	-5474
맛도	-5475
맛이	-5476
맥이	-5477
명한	-5478
문을	-5479
물을	-5480
밖은	-5481
받는	-5482
받을	-5483
발을	-5484
버린	-5485
보네	-5486
부의	-5487
뻑해	-5488
생각	-5489
서와	-5490
설여	-5491
소리	-5492
속에	-5493
수업	-5494
스트	-5495
시피	-5496
신발	-5497
쎄요	-5498
아리	-5499
아빠	-5500
야해	-5501
양말	-5502
양제	-5503
없네	-5504
에만	-5505
역이	-5506
였네	-5507
영상	-5508
오래	-5509
온다	-5510
올라	-5511
올려	-5512
왔다	-5513
우고	-5514
우지	-5515
운데	-5516
울렛	-5517
은것	-5518
이너	-5519
인줄	-5520
정녀	-5521
져서	-5522
조건	-5523
주일	-5524
지못	-5525
지부	-5526
지우	-5527
질뻔	-5528
질제	-5529
쪄도	-5530
찰텐	-5531
처리	-5532
총회	-5533
촬영	-5534
콜록	-5535
터넷	-5536
테니	-5537
트남	-5538
트롤	-5539
티콘	-5540
프터	-5541
하며	-5542
하진	-5543
학금	-5544
한건	-5545
함에	-5546
해가	-5547
했나	-5548
향을	-5549
▁12	-5550
▁AS	-5551
▁as	-5552
▁가게	-5553
▁간대	-5554
▁간직	-5555
▁감동	-5556
▁감출	-5557
▁강요	-5558
▁강제	-5559
▁갖게	-5560
▁같다	-5561
▁같음	-5562
▁개시	-5563
▁객관	-5564
▁갠톡	-5565
▁걔는	-5566
▁걷고	-5567
▁걷길	-5568
▁골프	-5569
▁공유	-5570
▁과연	-5571
▁구두	-5572
▁구별	-5573
▁구워	-5574
▁군인	-5575
▁귀로	-5576
▁그걸	-5577
▁그때	-5578
▁그땐	-5579
▁근데	-5580
▁글자	-5581
▁길면	-5582
▁길지	-5583
▁깎아	-5584
▁꼬박	-5585
▁꼰대	-5586
▁꾹꾹	-5587
▁끈을	-5588
▁끝냈	-5589
▁나나	-5590
▁나니	-5591
▁나야	-5592
▁남과	-5593
▁남들	-5594
▁낮잠	-5595
▁낳을	-5596
▁내면	-5597
▁내서	-5598
▁냉면	-5599
▁너가	-5600
▁너의	-5601
▁넣을	-5602
▁노려	-5603
▁놀까	-5604
▁농구	-5605
▁농담	-5606
▁놔둬	-5607
▁누락	-5608
▁눈높	-5609
▁늙어	-5610
▁다칠	-5611
▁단체	-5612
▁닮은	-5613
▁당첨	-5614
▁당한	-5615
▁대수	-5616
▁대충	-5617
▁대피	-5618
▁데가	-5619
▁독이	-5620
▁돌려	-5621
▁돌면	-5622
▁되짚	-5623
▁두푼	-5624
▁뒤에	-5625
▁뒹굴	-5626
▁드릴	-5627
▁땀을	-5628
▁때매	-5629
▁때요	-5630
▁때죠	-5631
▁떠날	-5632
▁또한	-5633
▁똥차	-5634
▁뜨겁	-5635
▁띄는	-5636
▁롱디	-5637
▁리드	-5638
▁마른	-5639
▁마중	-5640
▁막막	-5641
▁만화	-5642
▁말걸	-5643
▁망함	-5644
▁맞아	-5645
▁먹먹	-5646
▁먹은	-5647
▁멈춰	-5648
▁멋져	-5649
▁목적	-5650
▁몰려	-5651
▁못자	-5652
▁무모	-5653
▁무언	-5654
▁문화	-5655
▁물이	-5656
▁뭐로	-5657
▁뭐지	-5658
▁뭐해	-5659
▁뭘로	-5660
▁미루	-5661
▁미팅	-5662
▁믿고	-5663
▁믿어	-5664
▁믿지	-5665
▁밀려	-5666
▁바꿨	-5667
▁바쁠	-5668
▁반에	-5669
▁반장	-5670
▁반한	-5671
▁발견	-5672
▁밥을	-5673
▁방금	-5674
▁배달	-5675
▁배신	-5676
▁백업	-5677
▁버는	-5678
▁버릇	-5679
▁베프	-5680
▁변신	-5681
▁병신	-5682
▁보란	-5683
▁보신	-5684
▁봐주	-5685
▁봤네	-5686
▁부질	-5687
▁불만	-5688
▁불효	-5689
▁브랜	-5690
▁블록	-5691
▁비워	-5692
▁빌어	-5693
▁뿌린	-5694
▁사도	-5695
▁사먹	-5696
▁사수	-5697
▁사전	-5698
▁사줘	-5699
▁사춘	-5700
▁사표	-5701
▁상종	-5702
▁생생	-5703
▁서점	-5704
▁선풍	-5705
▁설득	-5706
▁세어	-5707
▁소름	-5708
▁속박	-5709
▁손편	-5710
▁수건	-5711
▁수능	-5712
▁승진	-5713
▁시려	-5714
▁시선	-5715
▁실천	-5716
▁실패	-5717
▁실행	-5718
▁싸운	-5719
▁싸웠	-5720
▁쌓여	-5721
▁썸도	-5722
▁쓰일	-5723
▁아부	-5724
▁안고	-5725
▁안될	-5726
▁안맞	-5727
▁안부	-5728
▁안할	-5729
▁알까	-5730
▁애의	-5731
▁애인	-5732
▁액정	-5733
▁어흥	-5734
▁없고	-5735
▁엇갈	-5736
▁엠티	-5737
▁여쭤	-5738
▁역할	-5739
▁열어	-5740
▁열흘	-5741
▁영어	-5742
▁예능	-5743
▁예비	-5744
▁예상	-5745
▁예약	-5746
▁오길	-5747
▁오려	-5748
▁오바	-5749
▁오셨	-5750
▁옳은	-5751
▁와인	-5752
▁와플	-5753
▁왠지	-5754
▁외출	-5755
▁욕해	-5756
▁운이	-5757
▁울고	-5758
▁웃는	-5759
▁웃음	-5760
▁원동	-5761
▁원인	-5762
▁원치	-5763
▁월세	-5764
▁웨딩	-5765
▁웹툰	-5766
▁으아	-5767
▁음료	-5768
▁이끌	-5769
▁이왕	-5770
▁인상	-5771
▁인지	-5772
▁일기	-5773
▁일방	-5774
▁일부	-5775
▁일시	-5776
▁읽어	-5777
▁임용	-5778
▁입학	-5779
▁있대	-5780
▁잊기	-5781
▁자장	-5782
▁작동	-5783
▁잘라	-5784
▁잠들	-5785
▁잡념	-5786
▁장갑	-5787
▁적당	-5788
▁전과	-5789
▁전학	-5790
▁절친	-5791
▁정장	-5792
▁정정	-5793
▁제정	-5794
▁조가	-5795
▁졸린	-5796
▁좋긴	-5797
▁좋음	-5798
▁좌절	-5799
▁죄가	-5800
▁주량	-5801
▁주워	-5802
▁즐겨	-5803
▁증거	-5804
▁증명	-5805
▁지각	-5806
▁지낸	-5807
▁지속	-5808
▁지압	-5809
▁지적	-5810
▁지친	-5811
▁직업	-5812
▁직전	-5813
▁질려	-5814
▁질린	-5815
▁질문	-5816
▁짧죠	-5817
▁찍는	-5818
▁찍어	-5819
▁찢어	-5820
▁차인	-5821
▁참다	-5822
▁처리	-5823
▁청결	-5824
▁청춘	-5825
▁최신	-5826
▁최저	-5827
▁축제	-5828
▁춥네	-5829
▁친절	-5830
▁친척	-5831
▁침묵	-5832
▁커서	-5833
▁케익	-5834
▁킁킁	-5835
▁키울	-5836
▁타나	-5837
▁타러	-5838
▁타인	-5839
▁탈모	-5840
▁태연	-5841
▁터지	-5842
▁터질	-5843
▁토닥	-5844
▁톡이	-5845
▁파도	-5846
▁팍팍	-5847
▁패션	-5848
▁포맷	-5849
▁폭식	-5850
▁피로	-5851
▁필기	-5852
▁필수	-5853
▁하러	-5854
▁하아	-5855
▁학벌	-5856
▁한약	-5857
▁한푼	-5858
▁할지	-5859
▁합리	-5860
▁해로	-5861
▁해준	-5862
▁했을	-5863
▁허락	-5864
▁현타	-5865
▁혼수	-5866
▁확률	-5867
▁환기	-5868
▁황당	-5869
▁회의	-5870
▁훔쳐	-5871
▁휴학	-5872
▁흐른	-5873
개월차	-5874
건강에	-5875
겠네여	-5876
기간을	-5877
다는걸	-5878
다는데	-5879
되어야	-5880
드리는	-5881
드위치	-5882
들이랑	-5883
뜨리기	-5884
렵니다	-5885
마다의	-5886
바퀴만	-5887
보려고	-5888
봤는데	-5889
센터에	-5890
셨나요	-5891
시키는	-5892
야해요	-5893
어가길	-5894
여행이	-5895
였나요	-5896
왔으면	-5897
이니까	-5898
이었어	-5899
졌어요	-5900
줬더니	-5901
지능에	-5902
칼로리	-5903
하기가	-5904
하기로	-5905
하는건	-5906
하려면	-5907
할까요	-5908
해봐도	-5909
해졌죠	-5910
해줘서	-5911
해지길	-5912
해지네	-5913
했다고	-5914
했다면	-5915
했던거	-5916
했을까	-5917
▁가기로	-5918
▁가끔씩	-5919
▁가네요	-5920
▁가는게	-5921
▁가려고	-5922
▁가볍게	-5923
▁가봐요	-5924
▁가야돼	-5925
▁가족들	-5926
▁각질제	-5927
▁간만에	-5928
▁간절히	-5929
▁갈수록	-5930
▁감각이	-5931
▁감정기	-5932
▁갑니다	-5933
▁거겠지	-5934
▁거라면	-5935
▁건강을	-5936
▁건들지	-5937
▁걸음을	-5938
▁것이죠	-5939
▁겠지만	-5940
▁결과가	-5941
▁결국엔	-5942
▁결혼을	-5943
▁계기가	-5944
▁고시원	-5945
▁고양이	-5946
▁곳까지	-5947
▁곳이죠	-5948
▁관계의	-5949
▁괜찮길	-5950
▁괜찮다	-5951
▁구멍이	-5952
▁귀여울	-5953
▁그것도	-5954
▁그녀도	-5955
▁그런가	-5956
▁그런지	-5957
▁그린라	-5958
▁그만둬	-5959
▁근처로	-5960
▁글쎄요	-5961
▁기르고	-5962
▁기술이	-5963
▁기억에	-5964
▁기억은	-5965
▁기억해	-5966
▁기울여	-5967
▁기준이	-5968
▁깨달음	-5969
▁꼼수를	-5970
▁꽃길만	-5971
▁끊겼어	-5972
▁나가면	-5973
▁나는데	-5974
▁나오네	-5975
▁나올거	-5976
▁나왔네	-5977
▁나이에	-5978
▁나이테	-5979
▁남겨서	-5980
▁남아있	-5981
▁남이니	-5982
▁남자의	-5983
▁낭만이	-5984
▁내일을	-5985
▁내일이	-5986
▁노래는	-5987
▁누구야	-5988
▁다녀도	-5989
▁다르게	-5990
▁다르지	-5991
▁다리가	-5992
▁단맛도	-5993
▁달라요	-5994
▁답답할	-5995
▁답정녀	-5996
▁대기업	-5997
▁대청소	-5998
▁대화의	-5999
▁더워서	-6000
▁도전은	-6001
▁돌리는	-6002
▁돌아서	-6003
▁동영상	-6004
▁되려고	-6005
▁되려면	-6006
▁되어요	-6007
▁되었길	-6008
▁되었네	-6009
▁되었을	-6010
▁된다고	-6011
▁두세요	-6012
▁뒷감당	-6013
▁드려요	-6014
▁들이대	-6015
▁따듯한	-6016
▁따라가	-6017
▁때로는	-6018
▁때부터	-6019
▁떠나간	-6020
▁떨린다	-6021
▁떨어뜨	-6022
▁똑같애	-6023
▁뛰어넘	-6024
▁레시피	-6025
▁마시지	-6026
▁막히는	-6027
▁막힌다	-6028
▁만남은	-6029
▁만났던	-6030
▁만났든	-6031
▁만들기	-6032
▁만지지	-6033
▁많으시	-6034
▁많은가	-6035
▁많은걸	-6036
▁말아야	-6037
▁말해서	-6038
▁말해주	-6039
▁맘처럼	-6040
▁맛있다	-6041
▁맛있어	-6042
▁망설여	-6043
▁맞으면	-6044
▁매력을	-6045
▁먹거나	-6046
▁먹는데	-6047
▁먹어도	-6048
▁먹어야	-6049
▁멈추지	-6050
▁메뉴얼	-6051
▁면도기	-6052
▁면역이	-6053
▁명상을	-6054
▁모습도	-6055
▁모자라	-6056
▁몸에는	-6057
▁무시해	-6058
▁무의식	-6059
▁무조건	-6060
▁문제죠	-6061
▁뭐하나	-6062
▁뭐하면	-6063
▁미래를	-6064
▁미련을	-6065
▁미용실	-6066
▁발전이	-6067
▁방법도	-6068
▁배울까	-6069
▁버리는	-6070
▁버스가	-6071
▁버티고	-6072
▁벅찰텐	-6073
▁베트남	-6074
▁베풀고	-6075
▁변해요	-6076
▁변화도	-6077
▁보기로	-6078
▁보내지	-6079
▁보냈네	-6080
▁보답을	-6081
▁보름달	-6082
▁보일러	-6083
▁부분을	-6084
▁부족해	-6085
▁불안해	-6086
▁불편한	-6087
▁붙잡는	-6088
▁붙잡아	-6089
▁비밀은	-6090
▁비밀을	-6091
▁비세요	-6092
▁비싸요	-6093
▁빠르면	-6094
▁빠지면	-6095
▁뻑뻑해	-6096
▁사과할	-6097
▁사귀어	-6098
▁사람인	-6099
▁사랑니	-6100
▁사이로	-6101
▁산책을	-6102
▁살쪄도	-6103
▁새신발	-6104
▁생각도	-6105
▁생겨서	-6106
▁선택이	-6107
▁설레는	-6108
▁설렘이	-6109
▁성공한	-6110
▁성별을	-6111
▁성적이	-6112
▁소리를	-6113
▁소문이	-6114
▁소소한	-6115
▁소액결	-6116
▁소화가	-6117
▁속시원	-6118
▁속이는	-6119
▁손가락	-6120
▁술마시	-6121
▁술한잔	-6122
▁쉽지가	-6123
▁스키장	-6124
▁시선을	-6125
▁시작할	-6126
▁식습관	-6127
▁싫어요	-6128
▁심심해	-6129
▁싶으면	-6130
▁싸우고	-6131
▁싸웠어	-6132
▁썸녀가	-6133
▁썸타고	-6134
▁쓰려고	-6135
▁쓰면서	-6136
▁쓰이는	-6137
▁아껴뒀	-6138
▁아는거	-6139
▁아니길	-6140
▁아니네	-6141
▁아니지	-6142
▁아쉬운	-6143
▁아울렛	-6144
▁아이디	-6145
▁아프게	-6146
▁아픔도	-6147
▁안받아	-6148
▁안부를	-6149
▁안좋아	-6150
▁안좋은	-6151
▁안타까	-6152
▁않았길	-6153
▁않지요	-6154
▁알겠어	-6155
▁알뜰폰	-6156
▁알바생	-6157
▁알아볼	-6158
▁앞에선	-6159
▁애매한	-6160
▁애틋한	-6161
▁애프터	-6162
▁야경이	-6163
▁어느새	-6164
▁어떡함	-6165
▁어렵다	-6166
▁어리석	-6167
▁어쩌면	-6168
▁어플로	-6169
▁어플을	-6170
▁언니랑	-6171
▁얼굴에	-6172
▁엄마랑	-6173
▁없는지	-6174
▁없지요	-6175
▁여러명	-6176
▁여자로	-6177
▁연락도	-6178
▁연애중	-6179
▁연인과	-6180
▁염색을	-6181
▁영양제	-6182
▁예감은	-6183
▁예민해	-6184
▁예뻐질	-6185
▁예의일	-6186
▁오니까	-6187
▁오디션	-6188
▁오라고	-6189
▁오해가	-6190
▁옷이요	-6191
▁외롭고	-6192
▁욕하고	-6193
▁용기내	-6194
▁우산에	-6195
▁우연이	-6196
▁우정이	-6197
▁운동할	-6198
▁월급날	-6199
▁월급은	-6200
▁위로를	-6201
▁위험한	-6202
▁위험해	-6203
▁유부녀	-6204
▁의심해	-6205
▁이기니	-6206
▁이러는	-6207
▁이력서	-6208
▁이별중	-6209
▁이별할	-6210
▁이사를	-6211
▁이어질	-6212
▁이어폰	-6213
▁이유로	-6214
▁이해를	-6215
▁이해못	-6216
▁인내할	-6217
▁인맥이	-6218
▁인생의	-6219
▁인터넷	-6220
▁일요일	-6221
▁일인지	-6222
▁입냄새	-6223
▁잇몸약	-6224
▁있거나	-6225
▁있겠다	-6226
▁있군요	-6227
▁있냐고	-6228
▁있었어	-6229
▁잊지못	-6230
▁잊혀져	-6231
▁자다가	-6232
▁자신은	-6233
▁자야지	-6234
▁자장면	-6235
▁잘생겼	-6236
▁잘지내	-6237
▁잘하면	-6238
▁잡아도	-6239
▁장학금	-6240
▁재밌을	-6241
▁저녁에	-6242
▁전여자	-6243
▁전하지	-6244
▁접는게	-6245
▁접어야	-6246
▁정리해	-6247
▁정신이	-6248
▁정해져	-6249
▁조심히	-6250
▁조절을	-6251
▁존중해	-6252
▁종교의	-6253
▁좋네요	-6254
▁좋대요	-6255
▁좋아서	-6256
▁좋았던	-6257
▁좋은거	-6258
▁좋을거	-6259
▁주저리	-6260
▁준다면	-6261
▁준비할	-6262
▁즐거울	-6263
▁즐겁게	-6264
▁즐기는	-6265
▁지극히	-6266
▁지금의	-6267
▁지루해	-6268
▁지웠어	-6269
▁지진시	-6270
▁지쳐서	-6271
▁지칠만	-6272
▁진실된	-6273
▁짝녀를	-6274
▁짠하고	-6275
▁찌질한	-6276
▁참았어	-6277
▁채워질	-6278
▁초기화	-6279
▁최고의	-6280
▁최악의	-6281
▁추천해	-6282
▁커플링	-6283
▁커피가	-6284
▁커피는	-6285
▁케이스	-6286
▁콩깍지	-6287
▁키우는	-6288
▁틀리는	-6289
▁파도가	-6290
▁편의점	-6291
▁포기가	-6292
▁풀어야	-6293
▁피하는	-6294
▁피해만	-6295
▁하나죠	-6296
▁하다니	-6297
▁하루는	-6298
▁하지도	-6299
▁한국도	-6300
▁한번더	-6301
▁한번쯤	-6302
▁한심해	-6303
▁할까요	-6304
▁함께도	-6305
▁해결될	-6306
▁해줄까	-6307
▁행동은	-6308
▁허리가	-6309
▁헤아릴	-6310
▁헷갈리	-6311
▁호랑이	-6312
▁호의를	-6313
▁혼자를	-6314
▁화장이	-6315
▁후회만	-6316
▁후회해	-6317
▁휴식도	-6318
▁흐르는	-6319
▁흘러가	-6320
▁희망은	-6321
▁희망이	-6322
▁힘들까	-6323
기만해도	-6324
드시거나	-6325
리겠어요	-6326
받으세요	-6327
보이네요	-6328
사람친구	-6329
성이에요	-6330
시나봐요	-6331
시는구나	-6332
실거예요	-6333
어두세요	-6334
있습니다	-6335
적이네요	-6336
지마세요	-6337
체적으로	-6338
하나봐요	-6339
하셨어요	-6340
해야할지	-6341
해졌어요	-6342
▁가능하죠	-6343
▁가능한가	-6344
▁가리세요	-6345
▁가족한테	-6346
▁간사하죠	-6347
▁감사하는	-6348
▁감으세요	-6349
▁갑작스럽	-6350
▁거짓말은	-6351
▁거짓말을	-6352
▁걱정이야	-6353
▁건강습관	-6354
▁건강하게	-6355
▁견뎌내고	-6356
▁결혼준비	-6357
▁결혼하고	-6358
▁결혼하기	-6359
▁결혼해야	-6360
▁고마움을	-6361
▁고민이죠	-6362
▁공부하면	-6363
▁과식하지	-6364
▁관심사에	-6365
▁괜찮겠지	-6366
▁괜찮을거	-6367
▁교양수업	-6368
▁그렇겠죠	-6369
▁금수저로	-6370
▁기다려도	-6371
▁기다리던	-6372
▁기본으로	-6373
▁기본이죠	-6374
▁깔끔해질	-6375
▁깨닫다니	-6376
▁꼬박꼬박	-6377
▁나겠네요	-6378
▁날이네요	-6379
▁남았네요	-6380
▁남이에요	-6381
▁남자분들	-6382
▁남자에게	-6383
▁남친이랑	-6384
▁낭만적인	-6385
▁너무나도	-6386
▁너무너무	-6387
▁넘어가네	-6388
▁넘었는데	-6389
▁놀이공원	-6390
▁높겠네요	-6391
▁놓으세요	-6392
▁눈높이가	-6393
▁늦었어요	-6394
▁다녀왔어	-6395
▁다릅니다	-6396
▁다하세요	-6397
▁단체생활	-6398
▁단호하게	-6399
▁달라져요	-6400
▁달라지지	-6401
▁당분간은	-6402
▁당신만이	-6403
▁데이트가	-6404
▁동생한테	-6405
▁드립니다	-6406
▁들리려고	-6407
▁들어가서	-6408
▁떨어지는	-6409
▁마셨는데	-6410
▁마음에서	-6411
▁마음이랑	-6412
▁만난다면	-6413
▁만화같은	-6414
▁맡기세요	-6415
▁먹었더니	-6416
▁멀어지면	-6417
▁멈추세요	-6418
▁메모하는	-6419
▁모두에게	-6420
▁모아야할	-6421
▁목표네요	-6422
▁무너져요	-6423
▁무섭나요	-6424
▁무한리필	-6425
▁문제네요	-6426
▁물어봐도	-6427
▁미안하다	-6428
▁바쁜일이	-6429
▁반가워요	-6430
▁받으세요	-6431
▁벗어나는	-6432
▁변화시켜	-6433
▁보내시길	-6434
▁보다보면	-6435
▁보일러가	-6436
▁보험처리	-6437
▁부모님을	-6438
▁분위기를	-6439
▁불공평해	-6440
▁비교하면	-6441
▁비밀연애	-6442
▁비정규직	-6443
▁비행기표	-6444
▁뿌린대로	-6445
▁사람이다	-6446
▁사람이야	-6447
▁사람하고	-6448
▁사랑이죠	-6449
▁사랑인지	-6450
▁사랑할까	-6451
▁사생활이	-6452
▁살아있음	-6453
▁상대방의	-6454
▁샌드위치	-6455
▁생각들을	-6456
▁생각하게	-6457
▁생겼어요	-6458
▁생긴다는	-6459
▁선물하면	-6460
▁선생님께	-6461
▁소유하는	-6462
▁쇼핑하고	-6463
▁수면양말	-6464
▁쉬어가도	-6465
▁스타일이	-6466
▁스테이크	-6467
▁슬퍼하고	-6468
▁습관처럼	-6469
▁시간내서	-6470
▁시기네요	-6471
▁신경쓰고	-6472
▁신경쓰면	-6473
▁신경쓰이	-6474
▁신고하고	-6475
▁심어볼까	-6476
▁심해지는	-6477
▁싶어하는	-6478
▁썸녀한테	-6479
▁쓸데없는	-6480
▁아름답죠	-6481
▁아쉬움이	-6482
▁아침부터	-6483
▁아팠으면	-6484
▁안타깝게	-6485
▁안해먹고	-6486
▁않겠네요	-6487
▁알아보는	-6488
▁어느정도	-6489
▁어둠에서	-6490
▁어떠세요	-6491
▁어떡하죠	-6492
▁어머어머	-6493
▁어찌해야	-6494
▁엄마아빠	-6495
▁없는걸까	-6496
▁없답니다	-6497
▁없어졌어	-6498
▁에너지가	-6499
▁에너지를	-6500
▁여자에게	-6501
▁여친에게	-6502
▁연락왔어	-6503
▁연락할까	-6504
▁연애세포	-6505
▁염탐하지	-6506
▁오래오래	-6507
▁올거예요	-6508
▁왜이렇게	-6509
▁외로움을	-6510
▁용서하고	-6511
▁웃으면서	-6512
▁원동력이	-6513
▁원인이죠	-6514
▁원한다면	-6515
▁유효기간	-6516
▁의식하는	-6517
▁이름이랑	-6518
▁이모티콘	-6519
▁이별하는	-6520
▁이불밖은	-6521
▁이상적인	-6522
▁이어보고	-6523
▁이어주는	-6524
▁이왕이면	-6525
▁이제서야	-6526
▁이해하고	-6527
▁이해하기	-6528
▁익숙해져	-6529
▁인생에서	-6530
▁인지시켜	-6531
▁인테리어	-6532
▁일어나면	-6533
▁일하면서	-6534
▁입으세요	-6535
▁있는걸까	-6536
▁있답니다	-6537
▁있으세요	-6538
▁잊어가는	-6539
▁잊혀질까	-6540
▁잘지내고	-6541
▁잠재력을	-6542
▁재미있어	-6543
▁재밌는거	-6544
▁저마다의	-6545
▁정신없이	-6546
▁존중하고	-6547
▁졸업식에	-6548
▁좋아지고	-6549
▁좋아지는	-6550
▁지금부터	-6551
▁지하철에	-6552
▁집에서도	-6553
▁짜증나네	-6554
▁차였는데	-6555
▁찾아가는	-6556
▁찾아봐요	-6557
▁찾아오는	-6558
▁챙겨주면	-6559
▁챙기세요	-6560
▁취미네요	-6561
▁취직하면	-6562
▁친구들을	-6563
▁친구라면	-6564
▁친구인데	-6565
▁친해지는	-6566
▁컴퓨터가	-6567
▁클럽에서	-6568
▁판단되면	-6569
▁표현하지	-6570
▁피부관리	-6571
▁필요하지	-6572
▁하느냐에	-6573
▁하니까요	-6574
▁하다보니	-6575
▁하셨군요	-6576
▁하지말고	-6577
▁한가지만	-6578
▁한답니다	-6579
▁한바퀴만	-6580
▁함께하고	-6581
▁합리적인	-6582
▁해결되길	-6583
▁해보려고	-6584
▁해봤는데	-6585
▁해야겠지	-6586
▁핸드폰이	-6587
▁헤어짐은	-6588
▁헬스장에	-6589
▁헷갈리네	-6590
▁형편대로	-6591
▁혼자해도	-6592
▁확인하는	-6593
▁후련하네	-6594
▁후련하니	-6595
▁후회하는	-6596
▁후회할까	-6597
▁힘들겠죠	-6598
▁힘들지만	-6599
원해보세요	-6600
조심하세요	-6601
하셨겠어요	-6602
한가봅니다	-6603
▁가능하다고	-6604
▁가족들이랑	-6605
▁간직하세요	-6606
▁갑작스러운	-6607
▁결혼적령기	-6608
▁고민하느라	-6609
▁고백하는게	-6610
▁고백하세요	-6611
▁공부하세요	-6612
▁공부해야지	-6613
▁괜찮아지고	-6614
▁그린라이트	-6615
▁기다리세요	-6616
▁기다릴게요	-6617
▁끝났습니다	-6618
▁나갈거예요	-6619
▁나눠보는게	-6620
▁나쁜거예요	-6621
▁남자입니다	-6622
▁놀랐겠어요	-6623
▁놀랐나봐요	-6624
▁놀러가세요	-6625
▁다가가세요	-6626
▁다행이네요	-6627
▁대단하네요	-6628
▁대피방법을	-6629
▁덜어보세요	-6630
▁데려가세요	-6631
▁도와달라고	-6632
▁동감입니다	-6633
▁두근거림을	-6634
▁드려보세요	-6635
▁들려주세요	-6636
▁들었겠네요	-6637
▁따뜻해졌죠	-6638
▁로봇이에요	-6639
▁만남이네요	-6640
▁만들었어요	-6641
▁망가뜨리기	-6642
▁밀어보세요	-6643
▁바람이라도	-6644
▁받아들여야	-6645
▁벅찰텐대요	-6646
▁병원가세요	-6647
▁보냈습니다	-6648
▁불편하겠죠	-6649
▁비하하지는	-6650
▁사랑스러운	-6651
▁사랑이라는	-6652
▁사랑이에요	-6653
▁사랑하니까	-6654
▁삭제하는게	-6655
▁상관없지만	-6656
▁생각이네요	-6657
▁생각한대로	-6658
▁생각할게요	-6659
▁생각할수록	-6660
▁생겼을지도	-6661
▁선물이네요	-6662
▁선택이었을	-6663
▁성공적으로	-6664
▁세워보세요	-6665
▁소개팅으로	-6666
▁소개팅하고	-6667
▁소중합니다	-6668
▁스타트업에	-6669
▁스트레스를	-6670
▁스트레스야	-6671
▁스트레스의	-6672
▁시간이네요	-6673
▁시켜달라고	-6674
▁아직이라면	-6675
▁알아두세요	-6676
▁알아차려도	-6677
▁알아차리지	-6678
▁애정표현일	-6679
▁없애주세요	-6680
▁없으니까요	-6681
▁여쭤보세요	-6682
▁여행이네요	-6683
▁연락이라도	-6684
▁연락하는게	-6685
▁연락하라고	-6686
▁연락해보는	-6687
▁연락해봐요	-6688
▁오늘이에요	-6689
▁운동하세요	-6690
▁움직이세요	-6691
▁위해서예요	-6692
▁응원할게요	-6693
▁이야기하고	-6694
▁이야기하는	-6695
▁이어나가는	-6696
▁인공지능에	-6697
▁일어나세요	-6698
▁있었을지도	-6699
▁자체만으로	-6700
▁잘못입니다	-6701
▁잡아보세요	-6702
▁재밌겠어요	-6703
▁점심시간에	-6704
▁정리하세요	-6705
▁정신건강에	-6706
▁정정기간을	-6707
▁제자리걸음	-6708
▁조급해지면	-6709
▁졸업하는데	-6710
▁좋으시네요	-6711
▁주의하세요	-6712
▁준비하기는	-6713
▁준비하느라	-6714
▁지저분해요	-6715
▁직접적으로	-6716
▁질러보세요	-6717
▁청소하세요	-6718
▁치료하세요	-6719
▁친구들한테	-6720
▁친해지는게	-6721
▁칭찬이네요	-6722
▁칭찬해주고	-6723
▁포장하는게	-6724
▁표현해보는	-6725
▁하루하루가	-6726
▁하우스웨딩	-6727
▁해드릴게요	-6728
▁해야겠네여	-6729
▁행복하세요	-6730
▁행복해보여	-6731
▁호랑이보다	-6732
▁확실해지면	-6733
▁흘려보세요	-6734
▁힘드니까요	-6735
▁간절하겠네요	-6736
▁개시해보세요	-6737
▁걱정되겠어요	-6738
▁결정했나봐요	-6739
▁극복해보세요	-6740
▁낳을뿐이에요	-6741
▁넓으신가봐요	-6742
▁놔둬야하는데	-6743
▁대단하시군요	-6744
▁되짚어보세요	-6745
▁많았나봅니다	-6746
▁부딪혔나봐요	-6747
▁부탁드립니다	-6748
▁분담해보세요	-6749
▁사랑하는지는	-6750
▁삭제해보세요	-6751
▁아껴뒀나봐요	-6752
▁연락두절돼서	-6753
▁운동해보세요	-6754
▁위로해드리는	-6755
▁이해해보세요	-6756
▁재미있나봐요	-6757
▁절약되겠네요	-6758
▁정신차리세요	-6759
▁존중해주세요	-6760
▁챙겨드시거나	-6761
▁축하해주세요	-6762
▁포맷해보세요	-6763
▁피곤했나봐요	-6764
▁필요해보여요	-6765
▁확인해달라고	-6766
▁힘드시겠어요	-6767
▁걱정하지마세요	-6768
▁결정이었을거라	-6769
▁말씀드려보세요	-6770
▁부담스러워할까	-6771
▁적응해야겠네요	-6772
▁좋아하시는구나	-6773
▁프로포즈해보세요	-6774
▁0	-6775
▁갱	-6776
▁겉	-6777
▁곤	-6778
▁깍	-6779
▁깰	-6780
▁껴	-6781
▁꽝	-6782
▁꿔	-6783
▁꿰	-6784
▁낸	-6785
▁넋	-6786
▁뇌	-6787
▁눌	-6788
▁눕	-6789
▁덥	-6790
▁돋	-6791
▁돕	-6792
▁뒀	-6793
▁떴	-6794
▁떼	-6795
▁뜬	-6796
▁묘	-6797
▁박	-6798
▁벤	-6799
▁볶	-6800
▁빛	-6801
▁뻐	-6802
▁뽀	-6803
▁숫	-6804
▁쌍	-6805
▁앱	-6806
▁얽	-6807
▁엊	-6808
▁엿	-6809
▁욜	-6810
▁워	-6811
▁잼	-6812
▁젤	-6813
▁쥐	-6814
▁짰	-6815
▁쪄	-6816
▁쭉	-6817
▁춘	-6818
▁캬	-6819
▁턱	-6820
▁텀	-6821
▁텅	-6822
▁퇴	-6823
▁틈	-6824
▁팁	-6825
▁팩	-6826
▁펴	-6827
▁헐	-6828
▁헥	-6829
▁헹	-6830
▁홈	-6831
▁홧	-6832
▁흠	-6833
▁히	-6834
가서	-6835
가에	-6836
가한	-6837
간대	-6838
간질	-6839
갔다	-6840
거든	-6841
걸이	-6842
겁한	-6843
게해	-6844
경이	-6845
계절	-6846
고의	-6847
과류	-6848
구로	-6849
그램	-6850
그런	-6851
극이	-6852
근한	-6853
근해	-6854
긋지	-6855
긋한	-6856
기사	-6857
기한	-6858
길래	-6859
꺼풀	-6860
꼈어	-6861
꾸던	-6862
꾸로	-6863
났을	-6864
낭비	-6865
내길	-6866
너덜	-6867
년만	-6868
년반	-6869
년사	-6870
년전	-6871
놓지	-6872
는다	-6873
니깐	-6874
님들	-6875
다운	-6876
닥을	-6877
달래	-6878
답이	-6879
더군	-6880
도라	-6881
독여	-6882
동거	-6883
동물	-6884
동차	-6885
됐네	-6886
된다	-6887
됬네	-6888
두리	-6889
들의	-6890
따로	-6891
때문	-6892
땜에	-6893
떨떨	-6894
란다	-6895
량의	-6896
려는	-6897
렸다	-6898
로라	-6899
로션	-6900
로잡	-6901
르몬	-6902
른다	-6903
릴있	-6904
마디	-6905
만남	-6906
망이	-6907
먹을	-6908
문득	-6909
물주	-6910
미고	-6911
바구	-6912
받은	-6913
발이	-6914
방비	-6915
버림	-6916
번을	-6917
번의	-6918
베리	-6919
보낼	-6920
보려	-6921
볶이	-6922
봐야	-6923
부르	-6924
부한	-6925
불러	-6926
뿐이	-6927
사이	-6928
사자	-6929
사진	-6930
상일	-6931
샜어	-6932
서요	-6933
서히	-6934
선배	-6935
설계	-6936
섭섭	-6937
성에	-6938
성을	-6939
셨어	-6940
소짓	-6941
수건	-6942
스레	-6943
시도	-6944
시방	-6945
시에	-6946
시지	-6947
신가	-6948
신고	-6949
신청	-6950
실에	-6951
실을	-6952
싶네	-6953
싸움	-6954
썸남	-6955
아파	-6956
안나	-6957
안할	-6958
액션	-6959
약이	-6960
었나	-6961
었는	-6962
었지	-6963
여도	-6964
여서	-6965
여주	-6966
연이	-6967
오게	-6968
오지	-6969
올까	-6970
와도	-6971
욕탕	-6972
용품	-6973
워시	-6974
워야	-6975
웠던	-6976
은지	-6977
의별	-6978
의의	-6979
이상	-6980
이진	-6981
이집	-6982
인공	-6983
일은	-6984
임금	-6985
임말	-6986
자가	-6987
잔치	-6988
쟁이	-6989
저히	-6990
적일	-6991
점이	-6992
좋아	-6993
주에	-6994
주의	-6995
주인	-6996
준대	-6997
줘도	-6998
줘서	-6999
즈를	-7000
지질	-7001
직이	-7002
질때	-7003
짼데	-7004
차게	-7005
찰랑	-7006
채기	-7007
천번	-7008
체가	-7009
쳐서	-7010
쳤다	-7011
초가	-7012
초에	-7013
치료	-7014
커플	-7015
코인	-7016
키기	-7017
타는	-7018
탈까	-7019
탈이	-7020
탔어	-7021
통이	-7022
통제	-7023
트로	-7024
트를	-7025
편이	-7026
평가	-7027
폭발	-7028
피해	-7029
학원	-7030
한대	-7031
한듯	-7032
할래	-7033
할수	-7034
헤어	-7035
혔어	-7036
활용	-7037
효도	-7038
휴일	-7039
히나	-7040
▁11	-7041
▁가본	-7042
▁가시	-7043
▁가입	-7044
▁가자	-7045
▁간섭	-7046
▁간질	-7047
▁갈궈	-7048
▁갈등	-7049
▁갔나	-7050
▁거도	-7051
▁거둬	-7052
▁거에	-7053
▁거였	-7054
▁건데	-7055
▁걸요	-7056
▁겁나	-7057
▁것에	-7058
▁것일	-7059
▁겠지	-7060
▁격식	-7061
▁견적	-7062
▁계산	-7063
▁계약	-7064
▁고집	-7065
▁곤두	-7066
▁골랐	-7067
▁공간	-7068
▁공복	-7069
▁공황	-7070
▁관찰	-7071
▁구매	-7072
▁구박	-7073
▁굳이	-7074
▁그나	-7075
▁그도	-7076
▁그림	-7077
▁그의	-7078
▁그지	-7079
▁그쪽	-7080
▁근교	-7081
▁기네	-7082
▁기름	-7083
▁기쁨	-7084
▁기침	-7085
▁길을	-7086
▁김에	-7087
▁까아	-7088
▁깨진	-7089
▁깨짐	-7090
▁꾸죠	-7091
▁끊기	-7092
▁끊는	-7093
▁끊어	-7094
▁끌지	-7095
▁끝의	-7096
▁나게	-7097
▁나란	-7098
▁나빴	-7099
▁난감	-7100
▁날짜	-7101
▁남녀	-7102
▁낮술	-7103
▁내딛	-7104
▁내맘	-7105
▁너덜	-7106
▁너랑	-7107
▁너와	-7108
▁넘게	-7109
▁넘넘	-7110
▁넘은	-7111
▁노잼	-7112
▁놀자	-7113
▁놓는	-7114
▁놓지	-7115
▁누워	-7116
▁느꼈	-7117
▁늘어	-7118
▁다듬	-7119
▁답을	-7120
▁대상	-7121
▁대쉬	-7122
▁덥다	-7123
▁데도	-7124
▁데서	-7125
▁돕는	-7126
▁돼서	-7127
▁돼지	-7128
▁되게	-7129
▁될지	-7130
▁두렵	-7131
▁둘다	-7132
▁드려	-7133
▁듣는	-7134
▁들게	-7135
▁듯한	-7136
▁따끔	-7137
▁따져	-7138
▁딱히	-7139
▁딴짓	-7140
▁때인	-7141
▁떨고	-7142
▁뜨끈	-7143
▁뜨는	-7144
▁라는	-7145
▁마라	-7146
▁만한	-7147
▁말과	-7148
▁말만	-7149
▁말자	-7150
▁망상	-7151
▁망한	-7152
▁맞게	-7153
▁맞을	-7154
▁맞이	-7155
▁맞출	-7156
▁매몰	-7157
▁매운	-7158
▁매정	-7159
▁먹기	-7160
▁먹나	-7161
▁멈출	-7162
▁멋질	-7163
▁메리	-7164
▁모여	-7165
▁몸과	-7166
▁몸살	-7167
▁못난	-7168
▁못생	-7169
▁무지	-7170
▁미운	-7171
▁믿는	-7172
▁믿음	-7173
▁밑바	-7174
▁바란	-7175
▁바래	-7176
▁반년	-7177
▁반영	-7178
▁받네	-7179
▁받았	-7180
▁받음	-7181
▁발라	-7182
▁발이	-7183
▁밤만	-7184
▁밤새	-7185
▁밥은	-7186
▁배가	-7187
▁배정	-7188
▁백수	-7189
▁뱃살	-7190
▁버림	-7191
▁번만	-7192
▁벌레	-7193
▁벌면	-7194
▁법을	-7195
▁벗겨	-7196
▁벗어	-7197
▁벤츠	-7198
▁병행	-7199
▁보수	-7200
▁보약	-7201
▁보임	-7202
▁보자	-7203
▁부케	-7204
▁부팅	-7205
▁분양	-7206
▁불순	-7207
▁불쑥	-7208
▁블랙	-7209
▁비만	-7210
▁비쌈	-7211
▁비오	-7212
▁비와	-7213
▁비용	-7214
▁비친	-7215
▁비트	-7216
▁비해	-7217
▁비혼	-7218
▁빼앗	-7219
▁사무	-7220
▁살려	-7221
▁살죠	-7222
▁삶에	-7223
▁삶은	-7224
▁샀다	-7225
▁서울	-7226
▁서핑	-7227
▁선배	-7228
▁설계	-7229
▁설렐	-7230
▁설마	-7231
▁세달	-7232
▁세탁	-7233
▁속아	-7234
▁속지	-7235
▁수십	-7236
▁수제	-7237
▁숙제	-7238
▁숙취	-7239
▁숫자	-7240
▁쉬다	-7241
▁스노	-7242
▁스쳐	-7243
▁스케	-7244
▁슬플	-7245
▁시급	-7246
▁식사	-7247
▁식욕	-7248
▁식은	-7249
▁식혀	-7250
▁실용	-7251
▁심난	-7252
▁심남	-7253
▁심쿵	-7254
▁싸울	-7255
▁쌓인	-7256
▁쏟아	-7257
▁쓰게	-7258
▁쓰면	-7259
▁쓰이	-7260
▁씨씨	-7261
▁아끼	-7262
▁아날	-7263
▁아냐	-7264
▁아놔	-7265
▁아래	-7266
▁아려	-7267
▁안풀	-7268
▁안한	-7269
▁않기	-7270
▁않으	-7271
▁알긴	-7272
▁애완	-7273
▁야구	-7274
▁야식	-7275
▁약점	-7276
▁양을	-7277
▁양치	-7278
▁얘는	-7279
▁어딘	-7280
▁어언	-7281
▁어째	-7282
▁억울	-7283
▁없앨	-7284
▁엉엉	-7285
▁에이	-7286
▁엮여	-7287
▁연상	-7288
▁연하	-7289
▁열받	-7290
▁영통	-7291
▁예고	-7292
▁예쁠	-7293
▁예정	-7294
▁예측	-7295
▁오죠	-7296
▁옥상	-7297
▁올게	-7298
▁옷은	-7299
▁와요	-7300
▁왜케	-7301
▁요청	-7302
▁욕을	-7303
▁욜로	-7304
▁용량	-7305
▁우습	-7306
▁웃게	-7307
▁웃고	-7308
▁원해	-7309
▁위축	-7310
▁유료	-7311
▁유통	-7312
▁으으	-7313
▁의존	-7314
▁이래	-7315
▁일과	-7316
▁일인	-7317
▁있던	-7318
▁잊자	-7319
▁자다	-7320
▁자요	-7321
▁자제	-7322
▁잘됐	-7323
▁잘한	-7324
▁잠식	-7325
▁장점	-7326
▁저기	-7327
▁저만	-7328
▁저음	-7329
▁저장	-7330
▁저주	-7331
▁저편	-7332
▁적은	-7333
▁적을	-7334
▁전할	-7335
▁절망	-7336
▁접은	-7337
▁접촉	-7338
▁정열	-7339
▁정이	-7340
▁젖은	-7341
▁제습	-7342
▁조별	-7343
▁졸라	-7344
▁종종	-7345
▁종지	-7346
▁좋네	-7347
▁주길	-7348
▁줄도	-7349
▁줄일	-7350
▁중문	-7351
▁줘야	-7352
▁즐길	-7353
▁지날	-7354
▁지수	-7355
▁지지	-7356
▁직후	-7357
▁질긴	-7358
▁쪼금	-7359
▁찔려	-7360
▁찬물	-7361
▁찼어	-7362
▁찾은	-7363
▁천국	-7364
▁초라	-7365
▁총회	-7366
▁추가	-7367
▁춥고	-7368
▁충실	-7369
▁취소	-7370
▁치마	-7371
▁친군	-7372
▁카공	-7373
▁크기	-7374
▁타면	-7375
▁탄다	-7376
▁태그	-7377
▁톡을	-7378
▁통장	-7379
▁투잡	-7380
▁페메	-7381
▁편린	-7382
▁편해	-7383
▁평범	-7384
▁표출	-7385
▁풀고	-7386
▁풀리	-7387
▁하객	-7388
▁하니	-7389
▁하필	-7390
▁학기	-7391
▁한결	-7392
▁한눈	-7393
▁한데	-7394
▁할게	-7395
▁할말	-7396
▁할인	-7397
▁핫한	-7398
▁해가	-7399
▁했네	-7400
▁허기	-7401
▁허허	-7402
▁헌신	-7403
▁헛된	-7404
▁헥헥	-7405
▁현관	-7406
▁혼나	-7407
▁혼내	-7408
▁혼밥	-7409
▁혼인	-7410
▁화나	-7411
▁화난	-7412
▁화학	-7413
▁화해	-7414
▁효도	-7415
▁훈훈	-7416
▁휘둘	-7417
▁흐려	-7418
▁히스	-7419
▁힘겨	-7420
▁힘은	-7421
가기도	-7422
가보다	-7423
갔네요	-7424
같네요	-7425
겁니다	-7426
게되네	-7427
기간이	-7428
기한이	-7429
나가는	-7430
난다고	-7431
난다면	-7432
날인데	-7433
년간의	-7434
년동안	-7435
년하고	-7436
는다고	-7437
는다는	-7438
는데는	-7439
는지도	-7440
다는것	-7441
다는게	-7442
다니는	-7443
달라는	-7444
당하는	-7445
당했어	-7446
도라의	-7447
독하고	-7448
드리러	-7449
때문에	-7450
라고는	-7451
렸으면	-7452
만나고	-7453
망이지	-7454
방법이	-7455
버리네	-7456
보려구	-7457
보셔요	-7458
보이나	-7459
빛으로	-7460
사람은	-7461
사진을	-7462
생각이	-7463
소짓게	-7464
속에서	-7465
스러웠	-7466
스럽네	-7467
스타일	-7468
시나요	-7469
싶네요	-7470
았다고	-7471
았더니	-7472
았어요	-7473
야겠어	-7474
야겠지	-7475
어진다	-7476
없어요	-7477
었다면	-7478
었을까	-7479
었지만	-7480
였는지	-7481
였을까	-7482
오는날	-7483
옵니다	-7484
왔네요	-7485
으라고	-7486
을때는	-7487
이나마	-7488
이면서	-7489
이야기	-7490
이지요	-7491
인거죠	-7492
인트가	-7493
있어요	-7494
있을까	-7495
자마자	-7496
적이면	-7497
지나봐	-7498
지부지	-7499
질까봐	-7500
플라워	-7501
하겠어	-7502
하다니	-7503
한거니	-7504
한다고	-7505
해보는	-7506
해져도	-7507
해지고	-7508
했나요	-7509
했다는	-7510
▁100	-7511
▁가거나	-7512
▁가라앉	-7513
▁가량의	-7514
▁가리는	-7515
▁가스비	-7516
▁가슴은	-7517
▁가치가	-7518
▁간절한	-7519
▁감정도	-7520
▁갔는지	-7521
▁갖자는	-7522
▁같다면	-7523
▁같으면	-7524
▁개인의	-7525
▁거꾸로	-7526
▁거라도	-7527
▁거리가	-7528
▁걱정을	-7529
▁건강한	-7530
▁걸렸어	-7531
▁걸었어	-7532
▁것이든	-7533
▁것일까	-7534
▁견과류	-7535
▁견디기	-7536
▁결국은	-7537
▁결혼에	-7538
▁결혼하	-7539
▁경쟁이	-7540
▁고독한	-7541
▁고르는	-7542
▁고민을	-7543
▁고백이	-7544
▁고백한	-7545
▁고치기	-7546
▁공감이	-7547
▁공부를	-7548
▁공휴일	-7549
▁관계는	-7550
▁관계도	-7551
▁관계에	-7552
▁관심있	-7553
▁괜찮지	-7554
▁괴롭다	-7555
▁구남친	-7556
▁구썸남	-7557
▁귀여운	-7558
▁귀엽죠	-7559
▁귀찮다	-7560
▁귀찮은	-7561
▁그것이	-7562
▁그대의	-7563
▁그러지	-7564
▁그런거	-7565
▁그만두	-7566
▁그분도	-7567
▁그분에	-7568
▁그에게	-7569
▁기대는	-7570
▁기억될	-7571
▁기억만	-7572
▁기운이	-7573
▁길거리	-7574
▁깨끗이	-7575
▁깨졌어	-7576
▁꿈에나	-7577
▁끊는게	-7578
▁끊어야	-7579
▁끝나도	-7580
▁끝나면	-7581
▁끝내는	-7582
▁끝인거	-7583
▁끝일줄	-7584
▁나가는	-7585
▁나가지	-7586
▁나갈까	-7587
▁나니까	-7588
▁나들이	-7589
▁나쁜놈	-7590
▁나약한	-7591
▁나오고	-7592
▁나온다	-7593
▁나이들	-7594
▁나타나	-7595
▁날씨도	-7596
▁남기고	-7597
▁남기는	-7598
▁남는게	-7599
▁났나봐	-7600
▁내리지	-7601
▁내버려	-7602
▁넋두리	-7603
▁노래가	-7604
▁노후는	-7605
▁놓아줄	-7606
▁놓치고	-7607
▁놓치지	-7608
▁누구냐	-7609
▁누우면	-7610
▁눈꺼풀	-7611
▁느껴지	-7612
▁다갔어	-7613
▁다니는	-7614
▁다닐까	-7615
▁다독여	-7616
▁다른데	-7617
▁다시는	-7618
▁다양한	-7619
▁다정한	-7620
▁단순한	-7621
▁단톡방	-7622
▁달달할	-7623
▁달라질	-7624
▁담배를	-7625
▁답장을	-7626
▁당당히	-7627
▁당사자	-7628
▁당신만	-7629
▁대단한	-7630
▁대하는	-7631
▁대학원	-7632
▁더이상	-7633
▁데리러	-7634
▁도와드	-7635
▁도저히	-7636
▁도전이	-7637
▁독하게	-7638
▁돌아갈	-7639
▁돌아와	-7640
▁동생이	-7641
▁되겠죠	-7642
▁되네요	-7643
▁되시길	-7644
▁된다면	-7645
▁두려운	-7646
▁뒤돌아	-7647
▁뒷통수	-7648
▁드레스	-7649
▁든든할	-7650
▁들어맞	-7651
▁들어요	-7652
▁들으며	-7653
▁들텐데	-7654
▁딱이죠	-7655
▁때리기	-7656
▁때마다	-7657
▁땡긴다	-7658
▁떡볶이	-7659
▁떨려서	-7660
▁떨어짐	-7661
▁똑같이	-7662
▁똑똑해	-7663
▁리액션	-7664
▁마셔요	-7665
▁마시기	-7666
▁마음껏	-7667
▁마주쳤	-7668
▁만나실	-7669
▁만났을	-7670
▁만들면	-7671
▁만들죠	-7672
▁많겠지	-7673
▁많지만	-7674
▁말이죠	-7675
▁말투는	-7676
▁말하면	-7677
▁말할까	-7678
▁맘같지	-7679
▁맛난거	-7680
▁머리로	-7681
▁먹기로	-7682
▁먹으러	-7683
▁멘탈이	-7684
▁면접만	-7685
▁모두를	-7686
▁모으는	-7687
▁모처럼	-7688
▁목걸이	-7689
▁목욕탕	-7690
▁몰라서	-7691
▁몰랐어	-7692
▁몸에서	-7693
▁못할까	-7694
▁무거운	-7695
▁무너진	-7696
▁무뎌질	-7697
▁무릎에	-7698
▁무모한	-7699
▁무섭네	-7700
▁무섭다	-7701
▁문제에	-7702
▁묻어두	-7703
▁물가가	-7704
▁물질이	-7705
▁뭐하냐	-7706
▁뭘까요	-7707
▁뭘하면	-7708
▁미련만	-7709
▁미련한	-7710
▁믿기지	-7711
▁바꾸는	-7712
▁바꿔야	-7713
▁바꿨어	-7714
▁바뀌어	-7715
▁바나나	-7716
▁바람둥	-7717
▁바람피	-7718
▁반대로	-7719
▁반에서	-7720
▁받았던	-7721
▁방법은	-7722
▁방식이	-7723
▁방학에	-7724
▁방학은	-7725
▁방해가	-7726
▁배불러	-7727
▁배워도	-7728
▁배터리	-7729
▁베란다	-7730
▁변덕이	-7731
▁변하고	-7732
▁별로임	-7733
▁별의별	-7734
▁보고만	-7735
▁보고파	-7736
▁보는건	-7737
▁보는데	-7738
▁보니까	-7739
▁보듬어	-7740
▁보시면	-7741
▁보이네	-7742
▁보인다	-7743
▁복잡할	-7744
▁본인이	-7745
▁볼때는	-7746
▁봐봐요	-7747
▁부리면	-7748
▁분명히	-7749
▁분에게	-7750
▁불가능	-7751
▁비겁한	-7752
▁비정상	-7753
▁빈자리	-7754
▁빌릴까	-7755
▁빠르게	-7756
▁빠져나	-7757
▁사겼어	-7758
▁사계절	-7759
▁사귀긴	-7760
▁사귀다	-7761
▁사라진	-7762
▁사람일	-7763
▁사랑만	-7764
▁사로잡	-7765
▁사실에	-7766
▁살거야	-7767
▁살아서	-7768
▁살아온	-7769
▁샀는데	-7770
▁상대는	-7771
▁상대에	-7772
▁상사병	-7773
▁상자를	-7774
▁상태인	-7775
▁상황에	-7776
▁상황일	-7777
▁색다른	-7778
▁생각지	-7779
▁생기길	-7780
▁서서히	-7781
▁선물해	-7782
▁선의의	-7783
▁선택의	-7784
▁설레고	-7785
▁성격도	-7786
▁성장을	-7787
▁세월이	-7788
▁소름돋	-7789
▁소모가	-7790
▁소비를	-7791
▁손수건	-7792
▁손으로	-7793
▁쇼핑몰	-7794
▁수천번	-7795
▁쉬면서	-7796
▁스릴있	-7797
▁슬프다	-7798
▁시간과	-7799
▁시작은	-7800
▁시작을	-7801
▁식었어	-7802
▁싫은데	-7803
▁싶다면	-7804
▁싶은게	-7805
▁싶지만	-7806
▁썸녀랑	-7807
▁썸으로	-7808
▁썸일까	-7809
▁씁니다	-7810
▁아니니	-7811
▁아니다	-7812
▁아무는	-7813
▁아무런	-7814
▁아무일	-7815
▁아이고	-7816
▁아파요	-7817
▁아프기	-7818
▁안되나	-7819
▁안보여	-7820
▁안오지	-7821
▁안하면	-7822
▁안해줘	-7823
▁않았을	-7824
▁알게되	-7825
▁알려면	-7826
▁알아가	-7827
▁알아야	-7828
▁애교가	-7829
▁약간의	-7830
▁얘기해	-7831
▁어디가	-7832
▁어렵지	-7833
▁어색한	-7834
▁어색해	-7835
▁어이가	-7836
▁얼떨떨	-7837
▁없다는	-7838
▁없대요	-7839
▁여기서	-7840
▁여지를	-7841
▁여행지	-7842
▁역시나	-7843
▁연습해	-7844
▁연애도	-7845
▁연애인	-7846
▁연인이	-7847
▁열까지	-7848
▁영원히	-7849
▁영향을	-7850
▁영화가	-7851
▁영화를	-7852
▁예쁘다	-7853
▁예쁜데	-7854
▁예의를	-7855
▁오늘로	-7856
▁오래갈	-7857
▁오르네	-7858
▁오지랖	-7859
▁온다고	-7860
▁올랐어	-7861
▁와닿지	-7862
▁왜이리	-7863
▁외국어	-7864
▁외로움	-7865
▁우산을	-7866
▁우울증	-7867
▁우울한	-7868
▁운동은	-7869
▁운동화	-7870
▁울적한	-7871
▁울적해	-7872
▁웃는게	-7873
▁웃으면	-7874
▁원망은	-7875
▁원하지	-7876
▁월급을	-7877
▁유학을	-7878
▁의도는	-7879
▁의심이	-7880
▁이김에	-7881
▁이대로	-7882
▁이러다	-7883
▁이러면	-7884
▁이럴까	-7885
▁이번달	-7886
▁이번엔	-7887
▁이별하	-7888
▁이사람	-7889
▁이상의	-7890
▁이어가	-7891
▁이해는	-7892
▁이혼을	-7893
▁인고의	-7894
▁인연에	-7895
▁일부로	-7896
▁입니다	-7897
▁입을까	-7898
▁입장을	-7899
▁있도록	-7900
▁있었던	-7901
▁있음을	-7902
▁잊기가	-7903
▁잊는게	-7904
▁잊혀진	-7905
▁자극이	-7906
▁자동차	-7907
▁자리가	-7908
▁자유를	-7909
▁자존심	-7910
▁자체를	-7911
▁작아지	-7912
▁잔소리	-7913
▁잘되고	-7914
▁잘못은	-7915
▁잘생겨	-7916
▁잘자요	-7917
▁잘하게	-7918
▁잘하니	-7919
▁잘할까	-7920
▁잡념을	-7921
▁잡았어	-7922
▁장점을	-7923
▁재미없	-7924
▁재설계	-7925
▁재채기	-7926
▁적어도	-7927
▁적응이	-7928
▁전기가	-7929
▁전까지	-7930
▁전부는	-7931
▁전에는	-7932
▁전으로	-7933
▁전학가	-7934
▁전화는	-7935
▁정답을	-7936
▁정답이	-7937
▁정도에	-7938
▁정리되	-7939
▁정리에	-7940
▁정성이	-7941
▁정신과	-7942
▁정신병	-7943
▁정신적	-7944
▁정하고	-7945
▁정확히	-7946
▁조급해	-7947
▁조언이	-7948
▁조용히	-7949
▁종교를	-7950
▁좋다고	-7951
▁좋더라	-7952
▁좋아져	-7953
▁좋아진	-7954
▁좋으니	-7955
▁좋은지	-7956
▁주려고	-7957
▁주름살	-7958
▁주변의	-7959
▁주인공	-7960
▁죽겠다	-7961
▁죽겠어	-7962
▁죽어도	-7963
▁죽을거	-7964
▁줄임말	-7965
▁중간에	-7966
▁중고로	-7967
▁줬으면	-7968
▁지긋지	-7969
▁지나고	-7970
▁지내요	-7971
▁지워질	-7972
▁지쳐요	-7973
▁지쳤어	-7974
▁지치네	-7975
▁직장인	-7976
▁진급할	-7977
▁진통제	-7978
▁질투가	-7979
▁질투를	-7980
▁집까지	-7981
▁짜증남	-7982
▁짝남과	-7983
▁짝남은	-7984
▁짝녀와	-7985
▁찍었네	-7986
▁차단도	-7987
▁차별이	-7988
▁차이인	-7989
▁착각이	-7990
▁참겠어	-7991
▁참아야	-7992
▁창피해	-7993
▁책임질	-7994
▁처음엔	-7995
▁처음이	-7996
▁첫이별	-7997
▁청소는	-7998
▁청소를	-7999
▁축복과	-8000
▁축하해	-8001
▁취직할	-8002
▁취해서	-8003
▁친척들	-8004
▁카톡할	-8005
▁컴터가	-8006
▁클럽을	-8007
▁탓하지	-8008
▁티나나	-8009
▁페북을	-8010
▁포근한	-8011
▁풀렸길	-8012
▁피시방	-8013
▁피하고	-8014
▁필요가	-8015
▁필요도	-8016
▁하겠죠	-8017
▁하기로	-8018
▁하는거	-8019
▁하늘이	-8020
▁하라는	-8021
▁하려면	-8022
▁하루일	-8023
▁하시고	-8024
▁하지마	-8025
▁하지요	-8026
▁학교에	-8027
▁한달반	-8028
▁한달째	-8029
▁한번만	-8030
▁한순간	-8031
▁한없이	-8032
▁한켠에	-8033
▁할게요	-8034
▁할수록	-8035
▁함께면	-8036
▁해내고	-8037
▁해주면	-8038
▁했나봐	-8039
▁했네요	-8040
▁했는지	-8041
▁했더니	-8042
▁행동할	-8043
▁행복이	-8044
▁향수가	-8045
▁허상일	-8046
▁허전할	-8047
▁헷갈려	-8048
▁호르몬	-8049
▁확률이	-8050
▁후배가	-8051
▁후회없	-8052
▁휴유증	-8053
▁흑역사	-8054
▁흔적이	-8055
▁흘러갈	-8056
▁힘내요	-8057
▁힘들면	-8058
남자친구	-8059
더라구요	-8060
르니까요	-8061
만으로도	-8062
받으면서	-8063
보는것도	-8064
사람에게	-8065
이라면요	-8066
이었네요	-8067
이었는데	-8068
적이에요	-8069
중입니다	-8070
질뻔했어	-8071
하겠지만	-8072
하면서도	-8073
한다는데	-8074
해야하나	-8075
▁가고싶다	-8076
▁가까워질	-8077
▁가나봐요	-8078
▁가늠하지	-8079
▁가벼워질	-8080
▁가져가면	-8081
▁가져왔다	-8082
▁가족들과	-8083
▁가치관에	-8084
▁간단하게	-8085
▁간질간질	-8086
▁감성적이	-8087
▁거니까요	-8088
▁거두세요	-8089
▁거짓말이	-8090
▁걱정하면	-8091
▁건가봐요	-8092
▁겨울에는	-8093
▁견뎌봐요	-8094
▁결정하기	-8095
▁결정하는	-8096
▁결혼이나	-8097
▁결혼한지	-8098
▁계산적인	-8099
▁고마워요	-8100
▁고맙다고	-8101
▁고백해야	-8102
▁고백했다	-8103
▁공부하는	-8104
▁공부하러	-8105
▁공부할까	-8106
▁괜찮아지	-8107
▁궁금증을	-8108
▁궁금하면	-8109
▁궁금한게	-8110
▁그것만큼	-8111
▁그러니까	-8112
▁그럴까요	-8113
▁그럴수도	-8114
▁그리움을	-8115
▁그리움이	-8116
▁그분에게	-8117
▁그사람이	-8118
▁기다려야	-8119
▁기다리게	-8120
▁기대치가	-8121
▁길러볼까	-8122
▁까먹었어	-8123
▁깎아야지	-8124
▁깨달음이	-8125
▁끝일지도	-8126
▁나겠어요	-8127
▁나누는게	-8128
▁나아지길	-8129
▁나에게도	-8130
▁나오라고	-8131
▁나오세요	-8132
▁날이에요	-8133
▁남자애랑	-8134
▁내려놓고	-8135
▁내리는게	-8136
▁냉장고에	-8137
▁너덜너덜	-8138
▁너무하네	-8139
▁노력해도	-8140
▁누구보다	-8141
▁누구한테	-8142
▁느낀다면	-8143
▁느려졌어	-8144
▁다가가도	-8145
▁다가오고	-8146
▁다되가네	-8147
▁달리세요	-8148
▁답답하다	-8149
▁답답해서	-8150
▁당연해요	-8151
▁대리효도	-8152
▁데이트는	-8153
▁데이트할	-8154
▁도와줘야	-8155
▁돌아가는	-8156
▁돌아오길	-8157
▁돌아오는	-8158
▁돌아오지	-8159
▁돌아올까	-8160
▁동생이랑	-8161
▁동생인데	-8162
▁됐습니다	-8163
▁되어가길	-8164
▁되어가네	-8165
▁되었는지	-8166
▁두고두고	-8167
▁드는걸로	-8168
▁들어오면	-8169
▁따끔하게	-8170
▁마음가는	-8171
▁마음에게	-8172
▁마음인지	-8173
▁마주치면	-8174
▁마주치지	-8175
▁마지막을	-8176
▁마지막이	-8177
▁만나기만	-8178
▁만나자는	-8179
▁말이예요	-8180
▁말하는게	-8181
▁말해보는	-8182
▁말해야지	-8183
▁맞나봐요	-8184
▁머릿속이	-8185
▁멋있네요	-8186
▁멋지네요	-8187
▁모르겠다	-8188
▁모습으로	-8189
▁몰랐어요	-8190
▁못하는데	-8191
▁못했군요	-8192
▁무너졌어	-8193
▁무뎌지는	-8194
▁문득문득	-8195
▁물리적인	-8196
▁뭐하냐고	-8197
▁뭐하는지	-8198
▁미련없이	-8199
▁미소짓게	-8200
▁미안하대	-8201
▁미화되기	-8202
▁믿었는데	-8203
▁바꾸세요	-8204
▁바꿔볼까	-8205
▁바꿔야지	-8206
▁바디로션	-8207
▁바디워시	-8208
▁바라는게	-8209
▁바란다면	-8210
▁바보같이	-8211
▁반대래요	-8212
▁반복되는	-8213
▁방법이죠	-8214
▁배고파서	-8215
▁배려해야	-8216
▁배우세요	-8217
▁배우자가	-8218
▁배워가는	-8219
▁배워보고	-8220
▁배워볼까	-8221
▁버려야지	-8222
▁베터리가	-8223
▁변해가는	-8224
▁별로네요	-8225
▁보내세요	-8226
▁보냈으니	-8227
▁복잡하게	-8228
▁봐보세요	-8229
▁봐주세요	-8230
▁봤습니다	-8231
▁부모님께	-8232
▁부정적인	-8233
▁부족한가	-8234
▁분명하게	-8235
▁분위기가	-8236
▁브랜드가	-8237
▁비슷하죠	-8238
▁비오는날	-8239
▁비트코인	-8240
▁비혼주의	-8241
▁사귀는데	-8242
▁사귀세요	-8243
▁사귀자고	-8244
▁사귀자는	-8245
▁사람만의	-8246
▁사랑받는	-8247
▁사랑보다	-8248
▁사랑에도	-8249
▁사랑하게	-8250
▁사랑해줄	-8251
▁사랑했어	-8252
▁삭제하는	-8253
▁살고싶어	-8254
▁살아가는	-8255
▁살아야죠	-8256
▁살았는데	-8257
▁상관없이	-8258
▁상대방은	-8259
▁상처받게	-8260
▁생각없이	-8261
▁생각일까	-8262
▁생각지도	-8263
▁생각처럼	-8264
▁생각했던	-8265
▁생일선물	-8266
▁선물해도	-8267
▁선택으로	-8268
▁세상이죠	-8269
▁속박에서	-8270
▁손가락이	-8271
▁솔직하고	-8272
▁쉬어가는	-8273
▁스스로를	-8274
▁스타일에	-8275
▁시간낭비	-8276
▁시간인데	-8277
▁시골에서	-8278
▁시끄러워	-8279
▁시어머니	-8280
▁시작하는	-8281
▁시키세요	-8282
▁식단조절	-8283
▁신경쓰인	-8284
▁실망하지	-8285
▁실용적인	-8286
▁심심한데	-8287
▁싶나봐요	-8288
▁썸인가요	-8289
▁아날로그	-8290
▁아니겠지	-8291
▁아니었어	-8292
▁아무말도	-8293
▁아침마다	-8294
▁아파하고	-8295
▁아프지만	-8296
▁안되겠죠	-8297
▁않습니다	-8298
▁않았네요	-8299
▁않았다면	-8300
▁알겠어서	-8301
▁알바생이	-8302
▁알아가는	-8303
▁애완동물	-8304
▁얘기하지	-8305
▁어디가지	-8306
▁어디에서	-8307
▁어린이집	-8308
▁어울릴까	-8309
▁어장인거	-8310
▁언제부터	-8311
▁얼굴보고	-8312
▁없습니다	-8313
▁없으면서	-8314
▁여우같은	-8315
▁여유롭게	-8316
▁여자인데	-8317
▁여친이랑	-8318
▁여행가고	-8319
▁연락오네	-8320
▁연습하고	-8321
▁연애상담	-8322
▁연애할때	-8323
▁연예인도	-8324
▁영화보고	-8325
▁영화보러	-8326
▁예상하지	-8327
▁오랜연애	-8328
▁외롭다고	-8329
▁웬수네요	-8330
▁웬수예요	-8331
▁의미일까	-8332
▁의심하지	-8333
▁의지해도	-8334
▁이겨내고	-8335
▁이뤄지지	-8336
▁이별이든	-8337
▁이별하면	-8338
▁이사하는	-8339
▁이상한가	-8340
▁이상형을	-8341
▁이야기는	-8342
▁이야기할	-8343
▁이용하는	-8344
▁이제부터	-8345
▁이해해요	-8346
▁인기있는	-8347
▁인연이죠	-8348
▁인정하는	-8349
▁일상으로	-8350
▁일어나야	-8351
▁일요일에	-8352
▁일이라도	-8353
▁일주일이	-8354
▁있었어요	-8355
▁자신만의	-8356
▁자야겠다	-8357
▁자존심을	-8358
▁잘되니까	-8359
▁잘해주면	-8360
▁장난인지	-8361
▁재미있는	-8362
▁쟁취하는	-8363
▁적극적인	-8364
▁전화해도	-8365
▁접촉하는	-8366
▁정리되길	-8367
▁정리하게	-8368
▁정리하길	-8369
▁제정신이	-8370
▁조급하게	-8371
▁종지부를	-8372
▁좋아졌어	-8373
▁좋아한대	-8374
▁좋을지도	-8375
▁주말이네	-8376
▁주말인데	-8377
▁지겨워진	-8378
▁지나가는	-8379
▁지났는데	-8380
▁지났어요	-8381
▁진지하게	-8382
▁집착하게	-8383
▁짝사랑만	-8384
▁차단하고	-8385
▁차례예요	-8386
▁차분하고	-8387
▁찾아오네	-8388
▁척하는게	-8389
▁첫사랑을	-8390
▁첫인상은	-8391
▁최저임금	-8392
▁추운가요	-8393
▁취직이나	-8394
▁친구들은	-8395
▁친구에게	-8396
▁크기만큼	-8397
▁토닥토닥	-8398
▁통보하는	-8399
▁퇴근길에	-8400
▁판도라의	-8401
▁편안하게	-8402
▁편안해질	-8403
▁편하다는	-8404
▁표현하기	-8405
▁피곤해서	-8406
▁한달만에	-8407
▁해달라고	-8408
▁해야겠죠	-8409
▁해야하나	-8410
▁해주는게	-8411
▁해주면서	-8412
▁해줬으면	-8413
▁행복하면	-8414
▁허무하네	-8415
▁헤어지네	-8416
▁헤어짐도	-8417
▁혼인신고	-8418
▁확실하게	-8419
▁확인하고	-8420
▁후회안할	-8421
▁후회하면	-8422
▁훔쳐보는	-8423
▁흐지부지	-8424
▁흘리세요	-8425
▁희생양이	-8426
▁히스테리	-8427
▁힘들거라	-8428
▁힘들어도	-8429
▁힘이드네	-8430
버렸습니다	-8431
었나봅니다	-8432
이었나봐요	-8433
하고싶은데	-8434
하더라고요	-8435
하시겠어요	-8436
해졌나봐요	-8437
▁가능할까요	-8438
▁가져주세요	-8439
▁개강이라니	-8440
▁객관적으로	-8441
▁걱정마세요	-8442
▁것만으로도	-8443
▁고민이네요	-8444
▁고백받았어	-8445
▁고백할까요	-8446
▁괜찮습니다	-8447
▁구체적으로	-8448
▁귀엽겠네요	-8449
▁기대했는데	-8450
▁기도할게요	-8451
▁길러보세요	-8452
▁깊었나봐요	-8453
▁남사친이랑	-8454
▁남편이네요	-8455
▁느껴보세요	-8456
▁다되어가네	-8457
▁다를거예요	-8458
▁달려있겠죠	-8459
▁답답할거라	-8460
▁당신이네요	-8461
▁데이트하고	-8462
▁뒤숭숭하네	-8463
▁따져보세요	-8464
▁때문이겠죠	-8465
▁때문이에요	-8466
▁떨리겠어요	-8467
▁떨어뜨려서	-8468
▁마셔보세요	-8469
▁마음이네요	-8470
▁마음이에요	-8471
▁만들어봐요	-8472
▁모르겠지만	-8473
▁무덤덤해질	-8474
▁무시당하는	-8475
▁문제인가요	-8476
▁물어보거나	-8477
▁미안해하지	-8478
▁믿어주세요	-8479
▁반갑습니다	-8480
▁반했나봐요	-8481
▁변덕스럽게	-8482
▁보내보세요	-8483
▁복잡한가요	-8484
▁봉사활동도	-8485
▁부담스러울	-8486
▁분인가봐요	-8487
▁사람들한테	-8488
▁사람일지도	-8489
▁사랑이라고	-8490
▁사랑이야기	-8491
▁사랑하는지	-8492
▁사랑하세요	-8493
▁사랑합니다	-8494
▁사랑해주는	-8495
▁생각나네요	-8496
▁생각하면서	-8497
▁서운하다고	-8498
▁쉬어가세요	-8499
▁습관처럼은	-8500
▁시간이었을	-8501
▁시간이에요	-8502
▁신경쓰이는	-8503
▁심리일까요	-8504
▁썸이었으면	-8505
▁아껴주세요	-8506
▁아닐거예요	-8507
▁아파하다가	-8508
▁아프겠어요	-8509
▁안되나봐요	-8510
▁안좋아하는	-8511
▁애프터까지	-8512
▁없어졌으면	-8513
▁여사친이랑	-8514
▁영화관이나	-8515
▁왔나봅니다	-8516
▁유통기한이	-8517
▁유효기간이	-8518
▁의미부여는	-8519
▁이별이에요	-8520
▁이별하려고	-8521
▁이야기해요	-8522
▁익숙해지지	-8523
▁인사드리러	-8524
▁인생이에요	-8525
▁인연이라면	-8526
▁인정하세요	-8527
▁일어났더니	-8528
▁일이니까요	-8529
▁일주일이네	-8530
▁잊어버리는	-8531
▁잘하셨어요	-8532
▁장난스러운	-8533
▁재회했는데	-8534
▁전여친이랑	-8535
▁전여친한테	-8536
▁접어두셔요	-8537
▁정리하는데	-8538
▁정리하려고	-8539
▁제자리여도	-8540
▁조금이나마	-8541
▁존중합니다	-8542
▁좋겠습니다	-8543
▁좋아하니까	-8544
▁좋아할까요	-8545
▁좋았을텐데	-8546
▁주말이네요	-8547
▁준비되어야	-8548
▁준비하는데	-8549
▁중독인가봐	-8550
▁중요하겠죠	-8551
▁지긋지긋한	-8552
▁지켜주세요	-8553
▁진정하세요	-8554
▁질투난다고	-8555
▁짝사랑에서	-8556
▁찍어주세요	-8557
▁차단하세요	-8558
▁채워보세요	-8559
▁채워줄게요	-8560
▁챙겨주세요	-8561
▁최선이었을	-8562
▁추천드려요	-8563
▁크시겠어요	-8564
▁태어났을까	-8565
▁팔아보세요	-8566
▁표현하세요	-8567
▁필요한가요	-8568
▁하셨나봐요	-8569
▁한달이에요	-8570
▁행복했으면	-8571
▁헤어지자는	-8572
▁헤어진지도	-8573
▁헬스장에서	-8574
▁혼란스러워	-8575
▁흘렀나봐요	-8576
▁결혼적령기가	-8577
▁고민해보세요	-8578
▁그리운가봐요	-8579
▁기울여보세요	-8580
▁다독여주세요	-8581
▁대화해보세요	-8582
▁도와드릴게요	-8583
▁도전해보세요	-8584
▁드라이플라워	-8585
▁떨쳐버리세요	-8586
▁무덤덤해지는	-8587
▁받아들이세요	-8588
▁배려해보세요	-8589
▁복잡한가봐요	-8590
▁부족한가봐요	-8591
▁빠져나오세요	-8592
▁상의해보세요	-8593
▁새출발하세요	-8594
▁생각하나봐요	-8595
▁생각해봅니다	-8596
▁서운하겠어요	-8597
▁설득해보세요	-8598
▁신청해보세요	-8599
▁여기까지였을	-8600
▁연락해도될까	-8601
▁연락했습니다	-8602
▁의지해보세요	-8603
▁이야기하세요	-8604
▁이어나가는게	-8605
▁익숙해지지가	-8606
▁있었나봅니다	-8607
▁정리했습니다	-8608
▁제안해보세요	-8609
▁존중해줬으면	-8610
▁좋아하는데도	-8611
▁좋아했나봐요	-8612
▁중요하니까요	-8613
▁착잡하겠어요	-8614
▁칭찬해보세요	-8615
▁표현해주세요	-8616
▁피곤하겠어요	-8617
▁허전하겠어요	-8618
▁허전한가봐요	-8619
▁헛헛한가봐요	-8620
▁헤어지고나서	-8621
▁화이트데이에	-8622
▁힘들었을텐데	-8623
▁결혼적령기예요	-8624
▁그린라이트일까	-8625
▁당황하셨겠어요	-8626
▁들어맞나봅니다	-8627
▁마음정리하세요	-8628
▁받아들여보세요	-8629
▁사람이었나봐요	-8630
▁사랑이었나봐요	-8631
▁사랑하나봅니다	-8632
▁신경쓰이나봐요	-8633
▁사랑이었으니까요	-8634
CC	-8635
go	-8636
▁B	-8637
▁O	-8638
▁값	-8639
▁걍	-8640
▁괘	-8641
▁규	-8642
▁균	-8643
▁귤	-8644
▁깐	-8645
▁깬	-8646
▁깼	-8647
▁꼴	-8648
▁꿩	-8649
▁낀	-8650
▁낌	-8651
▁넥	-8652
▁논	-8653
▁눅	-8654
▁닥	-8655
▁닭	-8656
▁댄	-8657
▁댓	-8658
▁덧	-8659
▁덮	-8660
▁둬	-8661
▁듬	-8662
▁띵	-8663
▁를	-8664
▁범	-8665
▁뷔	-8666
▁빽	-8667
▁삔	-8668
▁섞	-8669
▁섹	-8670
▁솜	-8671
▁송	-8672
▁쌈	-8673
▁썩	-8674
▁쑤	-8675
▁압	-8676
▁왼	-8677
▁줬	-8678
▁쥬	-8679
▁짤	-8680
▁짬	-8681
▁쩌	-8682
▁쪘	-8683
▁촉	-8684
▁쿠	-8685
▁탐	-8686
▁팬	-8687
▁펑	-8688
▁홀	-8689
▁힌	-8690
가나	-8691
가운	-8692
가입	-8693
가짐	-8694
간당	-8695
간에	-8696
감기	-8697
감정	-8698
감한	-8699
▁롤	-8700
값을	-8701
값이	-8702
강차	-8703
갖지	-8704
같네	-8705
같다	-8706
거란	-8707
거로	-8708
걸리	-8709
검진	-8710
것에	-8711
게를	-8712
게탕	-8713
겟어	-8714
겟죠	-8715
결이	-8716
경우	-8717
고는	-8718
고문	-8719
고민	-8720
곡에	-8721
곡차	-8722
곤증	-8723
골이	-8724
과의	-8725
과적	-8726
관념	-8727
관에	-8728
구가	-8729
구마	-8730
구만	-8731
구죠	-8732
구쳐	-8733
국수	-8734
궁무	-8735
권이	-8736
그란	-8737
그래	-8738
그인	-8739
근무	-8740
금도	-8741
금통	-8742
기견	-8743
기네	-8744
기다	-8745
기라	-8746
기름	-8747
기면	-8748
기운	-8749
기자	-8750
기정	-8751
기찬	-8752
긴건	-8753
긴지	-8754
길게	-8755
깃만	-8756
까옷	-8757
깍째	-8758
꺼비	-8759
꼬리	-8760
꽂이	-8761
꾸난	-8762
꿀해	-8763
끝이	-8764
나긴	-8765
나보	-8766
나쁘	-8767
나쁜	-8768
나올	-8769
낫네	-8770
내기	-8771
널을	-8772
넛오	-8773
년여	-8774
노력	-8775
놈들	-8776
눅해	-8777
눴길	-8778
는것	-8779
늦게	-8780
니즘	-8781
니티	-8782
다네	-8783
다녀	-8784
다시	-8785
단은	-8786
달까	-8787
달된	-8788
달반	-8789
달할	-8790
담길	-8791
당을	-8792
당황	-8793
대사	-8794
댓말	-8795
던게	-8796
던곳	-8797
던데	-8798
덜덜	-8799
▁빙	-8800
▁빡	-8801
▁뺏	-8802
▁샐	-8803
▁섣	-8804
▁숏	-8805
▁썰	-8806
▁얇	-8807
거다	-8808
견례	-8809
데기	-8810
도염	-8811
돌림	-8812
동생	-8813
동을	-8814
돼야	-8815
되게	-8816
되고	-8817
되실	-8818
되어	-8819
된거	-8820
두통	-8821
둥해	-8822
뒹글	-8823
드리	-8824
들로	-8825
들만	-8826
들요	-8827
듯할	-8828
디게	-8829
디오	-8830
뚝뚝	-8831
띠를	-8832
라구	-8833
라뇨	-8834
라를	-8835
람을	-8836
랭이	-8837
량을	-8838
러니	-8839
러드	-8840
러운	-8841
런치	-8842
럴까	-8843
럽을	-8844
레질	-8845
려야	-8846
력소	-8847
례품	-8848
례허	-8849
록금	-8850
록초	-8851
론가	-8852
롭지	-8853
료를	-8854
루즈	-8855
루투	-8856
룽지	-8857
류성	-8858
르륵	-8859
르쳐	-8860
를까	-8861
리나	-8862
리다	-8863
리두	-8864
리래	-8865
리로	-8866
리마	-8867
리며	-8868
림도	-8869
릿빛	-8870
마려	-8871
마시	-8872
마음	-8873
마저	-8874
많은	-8875
말자	-8876
망한	-8877
매가	-8878
맨날	-8879
머코	-8880
먼이	-8881
메라	-8882
면과	-8883
면에	-8884
모호	-8885
목을	-8886
몸이	-8887
몸일	-8888
무슨	-8889
문서	-8890
문제	-8891
물도	-8892
물이	-8893
미리	-8894
미팅	-8895
밖의	-8896
반에	-8897
받쳐	-8898
밥통	-8899
▁옛	-8900
▁옮	-8901
▁젊	-8902
▁켠	-8903
▁텁	-8904
▁툭	-8905
▁풍	-8906
동진	-8907
명빨	-8908
박씨	-8909
방안	-8910
방은	-8911
방져	-8912
방학	-8913
방향	-8914
밭길	-8915
배를	-8916
배정	-8917
배추	-8918
백번	-8919
뱃돈	-8920
버는	-8921
벅스	-8922
번째	-8923
▁	-8924
.	-8925
요	-8926
이	-8927
어	-8928
는	-8929
하	-8930
아	-8931
가	-8932
지	-8933
다	-8934
해	-8935
고	-8936
세	-8937
을	-8938
나	-8939
사	-8940
보	-8941
도	-8942
거	-8943
게	-8944
좋	-8945
에	-8946
자	-8947
있	-8948
은	-8949
기	-8950
면	-8951
한	-8952
까	-8953
?	-8954
네	-8955
만	-8956
니	-8957
데	-8958
마	-8959
랑	-8960
예	-8961
서	-8962
그	-8963
겠	-8964
로	-8965
시	-8966
리	-8967
들	-8968
람	-8969
생	-8970
인	-8971
무	-8972
라	-8973
일	-8974
수	-8975
야	-8976
같	-8977
남	-8978
안	-8979
할	-8980
친	-8981
정	-8982
연	-8983
를	-8984
구	-8985
으	-8986
말	-8987
여	-8988
주	-8989
내	-8990
봐	-8991
의	-8992
죠	-8993
음	-8994
없	-8995
싶	-8996
각	-8997
제	-8998
신	-8999
것	-9000
려	-9001
오	-9002
잘	-9003
힘	-9004
너	-9005
대	-9006
상	-9007
간	-9008
많	-9009
별	-9010
더	-9011
바	-9012
않	-9013
했	-9014
스	-9015
진	-9016
부	-9017
되	-9018
애	-9019
전	-9020
드	-9021
락	-9022
었	-9023
건	-9024
저	-9025
때	-9026
모	-9027
헤	-9028
금	-9029
중	-9030
심	-9031
짝	-9032
운	-9033
화	-9034
길	-9035
썸	-9036
혼	-9037
비	-9038
워	-9039
못	-9040
러	-9041
장	-9042
물	-9043
미	-9044
적	-9045
분	-9046
알	-9047
감	-9048
먹	-9049
히	-9050
걸	-9051
습	-9052
래	-9053
당	-9054
우	-9055
받	-9056
테	-9057
행	-9058
결	-9059
소	-9060
선	-9061
달	-9062
날	-9063
르	-9064
직	-9065
좀	-9066
후	-9067
살	-9068
조	-9069
회	-9070
관	-9071
!	-9072
늘	-9073
았	-9074
타	-9075
돼	-9076
든	-9077
방	-9078
될	-9079
동	-9080
녀	-9081
실	-9082
복	-9083
차	-9084
과	-9085
질	-9086
뭐	-9087
른	-9088
찮	-9089
공	-9090
와	-9091
트	-9092
끝	-9093
괜	-9094
속	-9095
원	-9096
계	-9097
처	-9098
치	-9099
필	-9100
잊	-9101
두	-9102
집	-9103
문	-9104
귀	-9105
유	-9106
편	-9107
난	-9108
준	-9109
재	-9110
졌	-9111
경	-9112
런	-9113
던	-9114
답	-9115
줄	-9116
성	-9117
울	-9118
피	-9119
왜	-9120
년	-9121
렇	-9122
식	-9123
떻	-9124
느	-9125
꾸	-9126
볼	-9127
져	-9128
개	-9129
위	-9130
버	-9131
왔	-9132
떨	-9133
입	-9134
현	-9135
작	-9136
배	-9137
번	-9138
노	-9139
눈	-9140
새	-9141
맞	-9142
언	-9143
추	-9144
났	-9145
짜	-9146
또	-9147
법	-9148
잠	-9149
프	-9150
올	-9151
단	-9152
민	-9153
참	-9154
함	-9155
쓰	-9156
학	-9157
디	-9158
따	-9159
싫	-9160
력	-9161
줘	-9162
확	-9163
반	-9164
찾	-9165
겨	-9166
변	-9167
잡	-9168
담	-9169
쉬	-9170
억	-9171
카	-9172
능	-9173
점	-9174
갈	-9175
터	-9176
먼	-9177
얼	-9178
합	-9179
근	-9180
용	-9181
통	-9182
매	-9183
표	-9184
놀	-9185
술	-9186
천	-9187
절	-9188
레	-9189
련	-9190
백	-9191
누	-9192
럴	-9193
돌	-9194
머	-9195
불	-9196
맛	-9197
루	-9198
릴	-9199
발	-9200
긴	-9201
몰	-9202
호	-9203
듯	-9204
움	-9205
봅	-9206
꿈	-9207
충	-9208
랄	-9209
교	-9210
막	-9211
톡	-9212
청	-9213
파	-9214
약	-9215
접	-9216
증	-9217
영	-9218
돈	-9219
1	-9220
군	-9221
됐	-9222
취	-9223
싸	-9224
월	-9225
젠	-9226
큼	-9227
강	-9228
놓	-9229
닌	-9230
명	-9231
빠	-9232
째	-9233
곳	-9234
된	-9235
랍	-9236
외	-9237
떠	-9238
망	-9239
쁜	-9240
택	-9241
겼	-9242
믿	-9243
순	-9244
쉽	-9245
크	-9246
걱	-9247
국	-9248
임	-9249
갑	-9250
께	-9251
름	-9252
커	-9253
2	-9254
씩	-9255
업	-9256
맘	-9257
셨	-9258
앞	-9259
축	-9260
키	-9261
럽	-9262
였	-9263
온	-9264
,	-9265
열	-9266
폰	-9267
황	-9268
짐	-9269
설	-9270
휴	-9271
냥	-9272
슨	-9273
침	-9274
텐	-9275
뭘	-9276
쁘	-9277
슬	-9278
3	-9279
떤	-9280
럼	-9281
님	-9282
엄	-9283
궁	-9284
렸	-9285
최	-9286
허	-9287
켜	-9288
혀	-9289
착	-9290
쳐	-9291
출	-9292
태	-9293
양	-9294
격	-9295
족	-9296
험	-9297
급	-9298
록	-9299
잔	-9300
깨	-9301
존	-9302
포	-9303
갔	-9304
늦	-9305
린	-9306
환	-9307
즐	-9308
픈	-9309
형	-9310
몸	-9311
죽	-9312
체	-9313
떡	-9314
본	-9315
벌	-9316
책	-9317
극	-9318
냐	-9319
덜	-9320
산	-9321
종	-9322
챙	-9323
풀	-9324
목	-9325
써	-9326
첫	-9327
넘	-9328
플	-9329
란	-9330
항	-9331
멋	-9332
완	-9333
찍	-9334
티	-9335
낌	-9336
뿐	-9337
팅	-9338
향	-9339
붙	-9340
밥	-9341
셔	-9342
웃	-9343
견	-9344
응	-9345
초	-9346
활	-9347
글	-9348
손	-9349
평	-9350
끔	-9351
꼭	-9352
맨	-9353
숙	-9354
씨	-9355
폭	-9356
흘	-9357
즘	-9358
큰	-9359
탈	-9360
0	-9361
굴	-9362
뜻	-9363
줬	-9364
투	-9365
~	-9366
욕	-9367
짓	-9368
낼	-9369
닐	-9370
색	-9371
씀	-9372
곤	-9373
둘	-9374
봤	-9375
빨	-9376
뻐	-9377
뭔	-9378
솔	-9379
페	-9380
5	-9381
슴	-9382
풍	-9383
메	-9384
밀	-9385
코	-9386
꽃	-9387
병	-9388
척	-9389
냈	-9390
딱	-9391
똑	-9392
몇	-9393
졸	-9394
핸	-9395
껴	-9396
밤	-9397
며	-9398
벽	-9399
4	-9400
픔	-9401
독	-9402
찬	-9403
쳤	-9404
갖	-9405
듣	-9406
랐	-9407
림	-9408
옷	-9409
덤	-9410
밌	-9411
랜	-9412
승	-9413
역	-9414
짧	-9415
퇴	-9416
괴	-9417
끊	-9418
밖	-9419
봄	-9420
쓸	-9421
익	-9422
칭	-9423
핑	-9424
S	-9425
뒤	-9426
빼	-9427
펴	-9428
흐	-9429
6	-9430
꺼	-9431
료	-9432
박	-9433
베	-9434
빌	-9435
숨	-9436
악	-9437
칠	-9438
웠	-9439
흔	-9440
끼	-9441
얘	-9442
엇	-9443
깐	-9444
녕	-9445
득	-9446
렵	-9447
롭	-9448
렀	-9449
멀	-9450
깊	-9451
뎌	-9452
춰	-9453
케	-9454
곧	-9455
골	-9456
낫	-9457
석	-9458
높	-9459
삶	-9460
읽	-9461
잖	-9462
찌	-9463
채	-9464
헷	-9465
념	-9466
등	-9467
멍	-9468
숭	-9469
염	-9470
킨	-9471
퍼	-9472
꼬	-9473
냉	-9474
철	-9475
s	-9476
겁	-9477
꿨	-9478
뜨	-9479
벗	-9480
창	-9481
탁	-9482
끄	-9483
맥	-9484
섭	-9485
쇼	-9486
쩌	-9487
쯤	-9488
판	-9489
꿀	-9490
덧	-9491
션	-9492
십	-9493
클	-9494
특	-9495
덕	-9496
북	-9497
센	-9498
옆	-9499
팔	-9500
효	-9501
랬	-9502
례	-9503
립	-9504
뻔	-9505
엔	-9506
쟁	-9507
쩔	-9508
틀	-9509
틱	-9510
품	-9511
헛	-9512
김	-9513
깝	-9514
꿔	-9515
놈	-9516
딩	-9517
류	-9518
밍	-9519
삼	-9520
콩	-9521
패	-9522
희	-9523
권	-9524
냄	-9525
멈	-9526
싱	-9527
쌓	-9528
육	-9529
낭	-9530
땐	-9531
론	-9532
릿	-9533
삭	-9534
샀	-9535
엽	-9536
죄	-9537
즈	-9538
걷	-9539
놔	-9540
눠	-9541
됩	-9542
량	-9543
셀	-9544
턴	-9545
텨	-9546
토	-9547
획	-9548
귄	-9549
됨	-9550
브	-9551
뿌	-9552
액	-9553
7	-9554
N	-9555
깍	-9556
깔	-9557
뀌	-9558
녁	-9559
닥	-9560
벼	-9561
봇	-9562
웨	-9563
푸	-9564
혹	-9565
8	-9566
뀔	-9567
끈	-9568
뉴	-9569
뒷	-9570
듭	-9571
쐬	-9572
잤	-9573
흡	-9574
귈	-9575
긍	-9576
꼼	-9577
농	-9578
둬	-9579
딸	-9580
슷	-9581
썼	-9582
옴	-9583
컨	-9584
흥	-9585
갚	-9586
깜	-9587
끌	-9588
닫	-9589
렌	-9590
블	-9591
쓴	-9592
씹	-9593
왕	-9594
춥	-9595
콜	-9596
푹	-9597
걔	-9598
곰	-9599
규	-9600
낮	-9601
넌	-9602
넣	-9603
딴	-9604
뛰	-9605
링	-9606
뽑	-9607
씻	-9608
쪽	-9609
찰	-9610
춘	-9611
칼	-9612
컴	-9613
9	-9614
n	-9615
값	-9616
곁	-9617
깎	-9618
끗	-9619
낸	-9620
널	-9621
듬	-9622
렘	-9623
맙	-9624
몽	-9625
밝	-9626
봉	-9627
빛	-9628
빡	-9629
옥	-9630
잃	-9631
첩	-9632
콘	-9633
콤	-9634
탄	-9635
탔	-9636
헬	-9637
혔	-9638
겹	-9639
껏	-9640
꾹	-9641
닉	-9642
딪	-9643
랫	-9644
룩	-9645
뤄	-9646
맡	-9647
벚	-9648
빈	-9649
샤	-9650
앉	-9651
잇	-9652
탕	-9653
털	-9654
힌	-9655
검	-9656
낀	-9657
납	-9658
넓	-9659
녹	-9660
닮	-9661
둔	-9662
땀	-9663
땅	-9664
띄	-9665
롱	-9666
벤	-9667
엉	-9668
잼	-9669
짠	-9670
찔	-9671
콕	-9672
툰	-9673
팍	-9674
A	-9675
낄	-9676
늙	-9677
땡	-9678
뚝	-9679
렬	-9680
령	-9681
뢰	-9682
볶	-9683
빵	-9684
뻑	-9685
뽀	-9686
쁠	-9687
섬	-9688
씁	-9689
압	-9690
얻	-9691
왤	-9692
웬	-9693
젖	-9694
짱	-9695
킁	-9696
템	-9697
푼	-9698
햇	-9699
훈	-9700
객	-9701
곡	-9702
긋	-9703
꼈	-9704
꽤	-9705
끓	-9706
낙	-9707
낳	-9708
뒀	-9709
뜰	-9710
뱃	-9711
송	-9712
싼	-9713
쌩	-9714
앗	-9715
징	-9716
쩍	-9717
쪄	-9718
쪼	-9719
찼	-9720
춤	-9721
층	-9722
켠	-9723
탐	-9724
툴	-9725
휘	-9726
곱	-9727
광	-9728
궈	-9729
낚	-9730
눅	-9731
늠	-9732
닝	-9733
닿	-9734
돋	-9735
둠	-9736
둥	-9737
뒹	-9738
똥	-9739
롤	-9740
릎	-9741
묻	-9742
밑	-9743
밟	-9744
벅	-9745
범	-9746
쉴	-9747
슈	-9748
쌍	-9749
썹	-9750
쑥	-9751
옳	-9752
욱	-9753
젯	-9754
찜	-9755
찢	-9756
첨	-9757
퀴	-9758
톱	-9759
툼	-9760
틋	-9761
팩	-9762
팸	-9763
퓨	-9764
헥	-9765
흑	-9766
겟	-9767
긁	-9768
꾼	-9769
댈	-9770
렛	-9771
렜	-9772
률	-9773
릅	-9774
묵	-9775
볍	-9776
빚	-9777
쁨	-9778
삐	-9779
싹	-9780
쌈	-9781
쎄	-9782
쏟	-9783
쏠	-9784
씌	-9785
엮	-9786
왠	-9787
윗	-9788
쫄	-9789
쫌	-9790
찐	-9791
촉	-9792
츠	-9793
켰	-9794
쿨	-9795
탓	-9796
틈	-9797
팀	-9798
팠	-9799
폼	-9800
헌	-9801
홀	-9802
힐	-9803
B	-9804
C	-9805
a	-9806
갠	-9807
겪	-9808
굳	-9809
껄	-9810
꼰	-9811
꽉	-9812
넷	-9813
놨	-9814
댓	-9815
덥	-9816
딘	-9817
딛	-9818
떼	-9819
뚫	-9820
램	-9821
릇	-9822
맴	-9823
맷	-9824
맺	-9825
멘	-9826
몫	-9827
밉	-9828
빙	-9829
빴	-9830
샌	-9831
앨	-9832
엠	-9833
욜	-9834
웹	-9835
율	-9836
좌	-9837
줌	-9838
쥐	-9839
짚	-9840
짰	-9841
쭉	-9842
쭤	-9843
총	-9844
촬	-9845
컥	-9846
컷	-9847
컸	-9848
텁	-9849
텔	-9850
팁	-9851
팬	-9852
펑	-9853
풋	-9854
핫	-9855
훔	-9856
흠	-9857
갱	-9858
겉	-9859
겐	-9860
깰	-9861
꽝	-9862
꿰	-9863
넋	-9864
뇌	-9865
눌	-9866
눕	-9867
닷	-9868
댄	-9869
돕	-9870
됬	-9871
딜	-9872
땜	-9873
떴	-9874
뜬	-9875
띠	-9876
랖	-9877
랙	-9878
렐	-9879
렴	-9880
륵	-9881
몬	-9882
묘	-9883
샜	-9884
숫	-9885
썩	-9886
앱	-9887
얽	-9888
엊	-9889
엿	-9890
옵	-9891
왓	-9892
젤	-9893
졋	-9894
짼	-9895
측	-9896
캬	-9897
쿠	-9898
쿵	-9899
킬	-9900
턱	-9901
텀	-9902
텅	-9903
툭	-9904
헐	-9905
헹	-9906
홈	-9907
홧	-9908
D	-9909
O	-9910
P	-9911
X	-9912
c	-9913
g	-9914
o	-9915
걍	-9916
겜	-9917
괘	-9918
균	-9919
귤	-9920
깃	-9921
깅	-9922
깬	-9923
깼	-9924
꼴	-9925
꽂	-9926
꿩	-9927
넛	-9928
넥	-9929
넹	-9930
녔	-9931
논	-9932
뇨	-9933
눴	-9934
닦	-9935
닭	-9936
댔	-9937
덩	-9938
덮	-9939
뚱	-9940
띰	-9941
띵	-9942
랭	-9943
렉	-9944
룰	-9945
룸	-9946
룽	-9947
륜	-9948
릭	-9949
맹	-9950
뮤	-9951
밭	-9952
벨	-9953
볕	-9954
붓	-9955
뷔	-9956
빽	-9957
뺏	-9958
뻤	-9959
뽕	-9960
뿅	-9961
삔	-9962
샐	-9963
샘	-9964
섞	-9965
섣	-9966
섯	-9967
섰	-9968
섹	-9969
솜	-9970
쇠	-9971
숏	-9972
썰	-9973
쑤	-9974
씰	-9975
씸	-9976
얇	-9977
옛	-9978
옮	-9979
왼	-9980
웁	-9981
웽	-9982
윙	-9983
젊	-9984
젝	-9985
줍	-9986
쥬	-9987
즙	-9988
짤	-9989
짬	-9990
쨌	-9991
쪘	-9992
찡	-9993
찹	-9994
챘	-9995
